/**
  ******************************************************************************
  * @file    network_ecblobs.h
  * @brief   NN Code autogenerated DO NOT MODIFY IT
  ******************************************************************************
  * @attention
  *
  * Copyright (c) 2024 STMicroelectronics.
  * All rights reserved.
  *
  * This software is licensed under terms that can be found in the LICENSE file
  * in the root directory of this software component.
  * If no LICENSE file comes with this software, it is provided AS-IS.
  *
  ******************************************************************************
  */


#ifdef __cplusplus
extern "C" {
#endif

#include "ll_aton_caches_interface.h"

#include <string.h>

#if !defined(ECBLOB_CONST_SECTION)
#define ECBLOB_CONST_SECTION /* Empty */
#endif
#if !defined(ECBLOB_RUNTIME_SECTION)
#define ECBLOB_RUNTIME_SECTION /* Empty */
#endif

ECBLOB_CONST_SECTION
// aligned to the cache line size (equal to 64 bytes)
__attribute__((aligned(64)))
static const uint64_t _ec_blob_network_1[8] =
{
  0x00000002ca057a7aUL, 0x0000000c0000003dUL
};

#define _ec_blob_network_1_address _ec_blob_network_1

ECBLOB_CONST_SECTION
// aligned to the cache line size (equal to 64 bytes)
__attribute__((aligned(64)))
static const uint64_t _ec_blob_network_3[3072] =
{
  0x000017f9ca057a7aUL, 0x008021410000007dUL, 0x000000543c007c00UL, 0x040103033c0200e3UL,
  0x10a3420200002244UL, 0x003f000000600040UL, 0x00000001005f0000UL, 0x000000003c0a7c00UL,
  0x0000002c3c0c0043UL, 0x0080224100000000UL, 0x080000005c000042UL, 0x5c020123156000fcUL,
  0x0000000000098000UL, 0x000017ff00000003UL, 0x000000000000bfffUL, 0x078403fd00000000UL,
  0x5c0c004300000001UL, 0x2042204200000000UL, 0x000000015c0b7c00UL, 0xfbfb2d3a5d000803UL,
  0xfc2e21590000955cUL, 0xfc0b48340000f54cUL, 0xfc1a254d0000c68eUL, 0xfc2219e5000014f1UL,
  0xfbd40b3d00001cc7UL, 0xfc25620e0000dba4UL, 0xfc1c38ec0000eb7dUL, 0xfc12255400008424UL,
  0xfc3324960000b334UL, 0xfbd30ae40000d706UL, 0xfc1f28c100005013UL, 0xfc2a445a0000f563UL,
  0xfc3b372f0000fcc0UL, 0xfbd20bca0000714aUL, 0xfbf21e5500009be7UL, 0xfc370afc00003265UL,
  0xfbe93c8d00003ed1UL, 0xfbde0ea400006973UL, 0xfbd6080800001189UL, 0xfc172e180000a7f6UL,
  0xfc343e9d00009635UL, 0xfc17306d0000a5a0UL, 0xfbe217c000005ccdUL, 0xfc16368400001504UL,
  0xfc2524f300004e7fUL, 0xfc151b980000f624UL, 0xfc1f65090000fd02UL, 0xfc321ac40000debaUL,
  0xfc36096200006af8UL, 0xfc0950330000773bUL, 0xfbf11c3c0000de53UL, 0x00802261000070dbUL,
  0x0800000060000042UL, 0x60027c0015000000UL, 0x6007004300070000UL, 0x0000002000004000UL,
  0x00000000600c0043UL, 0x008020e110411041UL, 0x0008c10030007c00UL, 0x342ec00030020043UL,
  0x300500c300001800UL, 0x0000180000000000UL, 0x0000000000000001UL, 0x0010000000000024UL,
  0x00000006300c0042UL, 0x300d004300000007UL, 0x342ed83f00000008UL, 0x0000000030110043UL,
  0x008020a100000000UL, 0x0008c18428007c00UL, 0x34220d5028020043UL, 0x280500c300000120UL,
  0x0000000000000000UL, 0x0000000000000000UL, 0x0010000000000024UL, 0x00000006280c0042UL,
  0x280d004300000007UL, 0x34220eaf00000001UL, 0x0000000028110043UL, 0x0080208100000000UL,
  0x0008000824007c00UL, 0x342e000024020123UL, 0x0020000400300020UL, 0x0000000400000400UL,
  0x0000c00000000008UL, 0x0010000000000024UL, 0x00000006240c0042UL, 0x240d004300000007UL,
  0x342ec03f00000008UL, 0x0000000024110043UL, 0x10067c0000000000UL, 0x100c004300000027UL,
  0x0000000b0000000fUL, 0x00000015101e7c00UL, 0x0000002510207c00UL, 0x0000000110007c00UL,
  0x3c007c0024002001UL, 0x5c00200100000055UL, 0x2800200160002001UL, 0x24007fe430002001UL,
  0x0000000000000064UL, 0x0000000210007c00UL, 0x0000006410000424UL, 0x10007c0000000000UL,
  0x10007bc440000000UL, 0x0000000000000064UL, 0x0000000010067c00UL, 0x00000000100c0043UL,
  0x101e7c0000000000UL, 0x10207c0000000000UL, 0x24007c0000000000UL, 0x2400042400000002UL,
  0x0000000000000064UL, 0x4000000024007c00UL, 0x0000006424007bc4UL, 0x0080008100000000UL,
  0x000000023c007c00UL, 0x000000643c000424UL, 0x3c007c0000000000UL, 0x3c007bc440000000UL,
  0x0000000000000064UL, 0x5c007c0000800141UL, 0x5c00042408000002UL, 0x0000000000000064UL,
  0x480000005c007c00UL, 0x000000645c007bc4UL, 0x0080024100000000UL, 0x0800000260007c00UL,
  0x0000006460000424UL, 0x60007c0000000000UL, 0x60007bc448000000UL, 0x0000000000000064UL,
  0x28007c0000800261UL, 0x2800042400000002UL, 0x0000000000000064UL, 0x4000000028007c00UL,
  0x0000006428007bc4UL, 0x008000a100000000UL, 0x0000000230007c00UL, 0x0000006430000424UL,
  0x30007c0000000000UL, 0x30007bc440000000UL, 0x0000000000000064UL, 0x0000009d008000e1UL,
  0x40007c0000802161UL, 0x400200e300100034UL, 0x0000115501010303UL, 0x0030002010634202UL,
  0x002f0000001f0000UL, 0x400a7c0000000001UL, 0x400d7c0000000000UL, 0x0080228100000000UL,
  0x0800000064000042UL, 0x64020123156000fcUL, 0x0000000000090000UL, 0x000005ff00000000UL,
  0x000000000000bfffUL, 0x0784020000000000UL, 0x640c004300000001UL, 0x2042204200000000UL,
  0x00000001640b7c00UL, 0xfe342aac65000803UL, 0xfe1032f100007671UL, 0xfdf428f80000447dUL,
  0xfde838b7000013beUL, 0xfdf22800000004baUL, 0xfdf9225400002c20UL, 0xfe012f2400003a6cUL,
  0xfe0d329c000049faUL, 0xfe4a154e0000a425UL, 0xfe1334ad00005aa1UL, 0xfdfc2c6e0000f5bdUL,
  0xfdfb41ba0000712dUL, 0xfe012e4a000081c1UL, 0xfdea3310000066bbUL, 0xfe16246b0000288cUL,
  0xfde1293b0000280aUL, 0xfdfd33b50000a40aUL, 0xfe2f1bf30000a06cUL, 0xfdf82a1c00005ae9UL,
  0xfdfe378f0000059dUL, 0xfe0312f700005f4cUL, 0xfdf61b1e000097e3UL, 0xfe4816b30000dd23UL,
  0xfdd927da000092adUL, 0xfe0b15da00001f81UL, 0xfde8449e0000e306UL, 0xfdfd25d200003646UL,
  0xfdf22df80000444fUL, 0xfe1625d800002c7eUL, 0xfdfe36d70000cd9bUL, 0xfdf52d170000fb81UL,
  0xfe1a371a00009bbbUL, 0x008022a1000034ceUL, 0x0800000068000042UL, 0x68027c0015000000UL,
  0x6807004300070000UL, 0x0000002000004000UL, 0x00000000680c0043UL, 0x008020e110411041UL,
  0x0008000030007c00UL, 0x342e000030020123UL, 0x0020000100300020UL, 0x0000000000000400UL,
  0x0000000100000001UL, 0x0010000000000024UL, 0x00000006300c0042UL, 0x300d004300000007UL,
  0x342ec03f00000020UL, 0x0000000030110043UL, 0x0080212100000000UL, 0x0008018438007c00UL,
  0x34220e7038020043UL, 0x380500c300000120UL, 0x0000000000000000UL, 0x0000000000000000UL,
  0x0010000000000024UL, 0x00000006380c0042UL, 0x380d004300000007UL, 0x34220fcf00000001UL,
  0x0000000038110043UL, 0x0080204100000000UL, 0x000800081c007c00UL, 0x342f80001c020123UL,
  0x0020000100300020UL, 0x0000000100000400UL, 0x0000c00000000020UL, 0x0010000000000024UL,
  0x000000061c0c0042UL, 0x1c0d004300000007UL, 0x3430403f00000020UL, 0x000000001c110043UL,
  0x10047c0000000000UL, 0x100f00430000002bUL, 0x000000130000000fUL, 0x0000001710227c00UL,
  0x0000002910247c00UL, 0x0000000110007c00UL, 0x40007c001c002001UL, 0x6400200100100035UL,
  0x3000200168002001UL, 0x1c007fe438002001UL, 0x0000000000000064UL, 0x0000000210007c00UL,
  0x0000006410000424UL, 0x10007c0000000000UL, 0x10007bc440000000UL, 0x0000000000000064UL,
  0x0000000010047c00UL, 0x00000000100f0043UL, 0x10227c0000000000UL, 0x10247c0000000000UL,
  0x1c007c0000000000UL, 0x1c00042400000002UL, 0x0000000000000064UL, 0x400000001c007c00UL,
  0x000000641c007bc4UL, 0x0080004100000000UL, 0x0000000240007c00UL, 0x0000006440000424UL,
  0x40007c0000000000UL, 0x40007bc440000000UL, 0x0000000000000064UL, 0x64007c0000800161UL,
  0x6400042408000002UL, 0x0000000000000064UL, 0x4800000064007c00UL, 0x0000006464007bc4UL,
  0x0080028100000000UL, 0x0800000268007c00UL, 0x0000006468000424UL, 0x68007c0000000000UL,
  0x68007bc448000000UL, 0x0000000000000064UL, 0x30007c00008002a1UL, 0x3000042400000002UL,
  0x0000000000000064UL, 0x4000000030007c00UL, 0x0000006430007bc4UL, 0x008000e100000000UL,
  0x0000000238007c00UL, 0x0000006438000424UL, 0x38007c0000000000UL, 0x38007bc440000000UL,
  0x0000000000000064UL, 0x000000bd00800121UL, 0x44007c0000802181UL, 0x440200e300100034UL,
  0x0000110010100101UL, 0x0030020010774003UL, 0x002f000001ff0000UL, 0x440a7c00000f0020UL,
  0x440d7c0000000000UL, 0x008021a100000000UL, 0x0010002048007c00UL, 0x10100101480200e3UL,
  0x1063430000001100UL, 0x01ff000000300200UL, 0x001f1020002f0000UL, 0x00000000480a7c00UL,
  0x00000000480d7c00UL, 0x5c00004200802241UL, 0x156000fc08000000UL, 0x000900005c020123UL,
  0x0000000f00000000UL, 0x00017fff00005fffUL, 0x0000000000000000UL, 0x00000001070403f1UL,
  0x000000005c0c0043UL, 0x5c0b7c0020422042UL, 0x5d00100300000001UL, 0x00006d6efe0b3353UL,
  0x0000d89efe314bf5UL, 0x00008d9dfe0125deUL, 0x0000d415fe243561UL, 0x0000ab8dfdc5344eUL,
  0x0000fb09fde824f2UL, 0x00001a08fe223bf3UL, 0x00009cdefe3a2f77UL, 0x0000839bfdf02e6fUL,
  0x00003598fdc22f34UL, 0x00002b91fe1a295bUL, 0x0000f4eefe2b3a01UL, 0x0000138ffe113756UL,
  0x000028a8fdc02b8eUL, 0x00008411fdec3758UL, 0x00008810fe3c2c77UL, 0x00009510fe3a4a04UL,
  0x0000143dfdf323c2UL, 0x0000a096fdf24b72UL, 0x00009125fdd82ad2UL, 0x000087acfe2f3c50UL,
  0x0000990efe0f2d2fUL, 0x000098e4fe2a242fUL, 0x0000e267fde43125UL, 0x00003434fe083227UL,
  0x0000d8e4fe0831c7UL, 0x000013b3fe082cf3UL, 0x00000f1dfde33dbeUL, 0x00002a94fe102b90UL,
  0x00004d3dfe1e3917UL, 0x00003501fdef3281UL, 0x0000ee79fe103165UL, 0x00009a38fe174f3eUL,
  0x0000312ffdda36c3UL, 0x0000db39fe4429ffUL, 0x0000684afe07347eUL, 0x000047b3fe343b49UL,
  0x00004ae9fe01234cUL, 0x0000d8d2fe042374UL, 0x0000f4eafdf94461UL, 0x00002ac5fe2e3050UL,
  0x0000808dfe232b76UL, 0x0000fa56fe083737UL, 0x000020b2fe584d21UL, 0x00005290fdd53dd0UL,
  0x00003f2dfe2a3203UL, 0x00005391fde0555aUL, 0x0000d94ffdf4393dUL, 0x0000e61afdb03958UL,
  0x000080f9fdfc3d33UL, 0x00004cc3fdf02421UL, 0x00008250fe1f2772UL, 0x00008394fde42710UL,
  0x000098acfe2e454dUL, 0x00009c73fde52da5UL, 0x0000a68dfe363b68UL, 0x00007272fe4f38eeUL,
  0x000034dcfdd62768UL, 0x00007a43fe5a28e3UL, 0x00004674fe053690UL, 0x000011edfe11286aUL,
  0x0000f385fdec49e3UL, 0x0000ce11fdb12e87UL, 0x00004eb5fe4a27e9UL, 0x6000004200802261UL,
  0x1500000008000000UL, 0x0007000060027c00UL, 0x0000400060070043UL, 0x600c004300000020UL,
  0x1041104100000000UL, 0x14007c0000802001UL, 0x1402012300080000UL, 0x00300020342f8000UL,
  0x0000040000200010UL, 0x0000000100000020UL, 0x0000002400000000UL, 0x140c004200100000UL,
  0x0000000700000006UL, 0x00000004140d0043UL, 0x141100433430403fUL, 0x0000000000000000UL,
  0x34007c0000802101UL, 0x3402004300080184UL, 0x000008003421fc50UL, 0x00000000340500c3UL,
  0x0000000000000000UL, 0x0000002400000000UL, 0x340c004200100000UL, 0x0000000700000006UL,
  0x00000001340d0043UL, 0x341100433422048fUL, 0x0000000000000000UL, 0x30007c00008020e1UL,
  0x3002012300080000UL, 0x00300020342f8010UL, 0x0000040000200010UL, 0x0000000100000020UL,
  0x0000002400000000UL, 0x300c004200100000UL, 0x0000000700000006UL, 0x00000004300d0043UL,
  0x301100433430403fUL, 0x0000000000000000UL, 0x1c007c0000802041UL, 0x1c02012300080008UL,
  0x00300020342e0000UL, 0x0000080000400010UL, 0x0000000400000010UL, 0x0000002400018000UL,
  0x1c0c004200100000UL, 0x0000000700000006UL, 0x000000041c0d0043UL, 0x1c110043342f803fUL,
  0x0000000000000000UL, 0x0000002710047c00UL, 0x0000000110120043UL, 0x1015006300000011UL,
  0x000000110000000fUL, 0x101e7c0000000019UL, 0x10207c000000001bUL, 0x10007c0000000025UL,
  0x1c00200100000001UL, 0x0010003544007c00UL, 0x0010002148007c00UL, 0x600020015c002001UL,
  0x3000200114002001UL, 0x1c007fe434002001UL, 0x0000000000000064UL, 0x0000000210007c00UL,
  0x0000006410000424UL, 0x10007c0000000000UL, 0x10007bc440000000UL, 0x0000000000000064UL,
  0x0000000010047c00UL, 0x0000000010120043UL, 0x1015006300000000UL, 0x0000000000000000UL,
  0x101e7c0000000000UL, 0x10207c0000000000UL, 0x1c007c0000000000UL, 0x1c00042400000002UL,
  0x0000000000000064UL, 0x400000001c007c00UL, 0x000000641c007bc4UL, 0x0080004100000000UL,
  0x0000000244007c00UL, 0x0000006444000424UL, 0x44007c0000000000UL, 0x44007bc440000000UL,
  0x0000000000000064UL, 0x48007c0000800181UL, 0x4800042400000002UL, 0x0000000000000064UL,
  0x4000000048007c00UL, 0x0000006448007bc4UL, 0x008001a100000000UL, 0x080000025c007c00UL,
  0x000000645c000424UL, 0x5c007c0000000000UL, 0x5c007bc448000000UL, 0x0000000000000064UL,
  0x60007c0000800241UL, 0x6000042408000002UL, 0x0000000000000064UL, 0x4800000060007c00UL,
  0x0000006460007bc4UL, 0x0080026100000000UL, 0x0000000214007c00UL, 0x0000006414000424UL,
  0x14007c0000000000UL, 0x14007bc440000000UL, 0x0000000000000064UL, 0x30007c0000800001UL,
  0x3000042400000002UL, 0x0000000000000064UL, 0x4000000030007c00UL, 0x0000006430007bc4UL,
  0x008000e100000000UL, 0x0000000234007c00UL, 0x0000006434000424UL, 0x34007c0000000000UL,
  0x34007bc440000000UL, 0x0000000000000064UL, 0x000000dd00800101UL, 0x3c007c0000802141UL,
  0x3c0200e320100034UL, 0x0000220002020303UL, 0x0030004010634303UL, 0x002f0000003f0000UL,
  0x3c0a7c0000000001UL, 0x3c0d7c0001000200UL, 0x0080228100000000UL, 0x0800000064000042UL,
  0x64020123156000fcUL, 0x0000000000090000UL, 0x000002ff00000001UL, 0x0000000000005fffUL,
  0x070403ff00000000UL, 0x640c004300000001UL, 0x2042204200000000UL, 0x00000001640b7c00UL,
  0xfded23c265001003UL, 0xfddd2d210000a1fbUL, 0xfe5924440000dd8cUL, 0xfdd93a5800004741UL,
  0xfdd83ee300000ebfUL, 0xfe042cee000024b0UL, 0xfdde353000008a96UL, 0xfde03c0900008d1bUL,
  0xfe0929730000319aUL, 0xfdd2160400001642UL, 0xfe1f40fa000037dcUL, 0xfd9033bc0000daa6UL,
  0xfda1360600008051UL, 0xfe4318f3000060feUL, 0xfe3d1ab40000cebdUL, 0xfdcb36e100008b49UL,
  0xfdbc32f30000a3baUL, 0xfdc8253c0000e143UL, 0xfdc5346200001cc8UL, 0xfe213caf00002c70UL,
  0xfdf32db6000027e0UL, 0xfda32e580000c4c9UL, 0xfe662fcb0000cfb0UL, 0xfe4f26bb000077a4UL,
  0xfe0b26bc00003df1UL, 0xfdaf3072000028a3UL, 0xfdce321a0000d571UL, 0xfdce25d800001e1dUL,
  0xfe1e23500000d90dUL, 0xfdb43a6900005872UL, 0xfe501efa000004cbUL, 0xfe1e2e5d0000073eUL,
  0xfe7b327300008faeUL, 0xfdd32dcd0000fff9UL, 0xfdb431320000db1aUL, 0xfde9248300004307UL,
  0xfe55326c0000570eUL, 0xfdb2264f00001cdfUL, 0xfe5122970000ea6aUL, 0xfe5522c700006806UL,
  0xfdf250e600008cf9UL, 0xfdfa7ccb0000a61aUL, 0xfded3966000016e0UL, 0xfdb729dd00004742UL,
  0xfdbe26d300006edeUL, 0xfdb83bf900008130UL, 0xfda533df00000555UL, 0xfdb533950000fbefUL,
  0xfe401a780000f337UL, 0xfe461bfe0000a96aUL, 0xfe5622df00003e24UL, 0xfe212cc90000c5a1UL,
  0xfe0427a5000004f7UL, 0xfd9a306b00007dbfUL, 0xfdd32813000076a4UL, 0xfe923958000012f7UL,
  0xfde0335d0000a8f1UL, 0xfe321b4900002cb6UL, 0xfe0231ab000069c1UL, 0xfe6329a20000b75fUL,
  0xfe4720c100002977UL, 0xfdd12dd80000efdcUL, 0xfdfd3acc0000f4c7UL, 0xfe365133000087eeUL,
  0x008022a100008e56UL, 0x0800000068000042UL, 0x68027c0015000000UL, 0x6807004300070000UL,
  0x0000002000004000UL, 0x00000000680c0043UL, 0x008020c110411041UL, 0x008802002c007c00UL,
  0x342e00002c020123UL, 0x0040000100300020UL, 0x0000000000000800UL, 0x0000000200000001UL,
  0x0010000000000024UL, 0x000000062c0c0042UL, 0x2c0d004300000007UL, 0x342f803f00000020UL,
  0x000000002c110043UL, 0x0080204100000000UL, 0x000801841c007c00UL, 0x342204501c020043UL,
  0x1c0500c300000480UL, 0x0000000000000000UL, 0x0000000000000000UL, 0x0010000000000024UL,
  0x000000061c0c0042UL, 0x1c0d004300000007UL, 0x3422090f00000001UL, 0x000000001c110043UL,
  0x0080200100000000UL, 0x0008000814007c00UL, 0x342f800014020123UL, 0x0040000200180010UL,
  0x0000000200000400UL, 0x0000600000000020UL, 0x0010000000000024UL, 0x00000006140c0042UL,
  0x140d004300000007UL, 0x342fe03f00000020UL, 0x0000000014110043UL, 0x10027c0000000000UL,
  0x100c00430000002bUL, 0x000000050000000dUL, 0x0000001510227c00UL, 0x0000002910247c00UL,
  0x0000000110007c00UL, 0x3c007c0014002001UL, 0x6400200120100035UL, 0x1c00200168002001UL,
  0x14007fe42c002001UL, 0x0000000000000064UL, 0x0000000210007c00UL, 0x0000006410000424UL,
  0x10007c0000000000UL, 0x10007bc440000000UL, 0x0000000000000064UL, 0x0000000010027c00UL,
  0x00000000100c0043UL, 0x10227c0000000000UL, 0x10247c0000000000UL, 0x14007c0000000000UL,
  0x1400042400000002UL, 0x0000000000000064UL, 0x4000000014007c00UL, 0x0000006414007bc4UL,
  0x0080000100000000UL, 0x000000023c007c00UL, 0x000000643c000424UL, 0x3c007c0000000000UL,
  0x3c007bc440000000UL, 0x0000000000000064UL, 0x64007c0000800141UL, 0x6400042408000002UL,
  0x0000000000000064UL, 0x4800000064007c00UL, 0x0000006464007bc4UL, 0x0080028100000000UL,
  0x0800000268007c00UL, 0x0000006468000424UL, 0x68007c0000000000UL, 0x68007bc448000000UL,
  0x0000000000000064UL, 0x1c007c00008002a1UL, 0x1c00042400000002UL, 0x0000000000000064UL,
  0x400000001c007c00UL, 0x000000641c007bc4UL, 0x0080004100000000UL, 0x000000022c007c00UL,
  0x000000642c000424UL, 0x2c007c0000000000UL, 0x2c007bc440000000UL, 0x0000000000000064UL,
  0x000000fd008000c1UL, 0x40007c0000802161UL, 0x400200e300100034UL, 0x0000110010100101UL,
  0x0018010010774003UL, 0x0017000000ff0000UL, 0x400a7c00000f0040UL, 0x400d7c0000000000UL,
  0x0080218100000000UL, 0x0010002044007c00UL, 0x10100101440200e3UL, 0x1077400000001100UL,
  0x00ff000000180100UL, 0x001f104000170000UL, 0x00000000440a7c00UL, 0x00000000440d7c00UL,
  0x48007c00008021a1UL, 0x480200e300100020UL, 0x0000110010100101UL, 0x0018010010774000UL,
  0x0017000000ff0000UL, 0x480a7c00002f2040UL, 0x480d7c0000000000UL, 0x0080214100000000UL,
  0x001000203c007c00UL, 0x101001013c0200e3UL, 0x1063430000001100UL, 0x00ff000000180100UL,
  0x003f304000170000UL, 0x000000003c0a7c00UL, 0x000000003c0d7c00UL, 0x5c00004200802241UL,
  0x156000fc08000000UL, 0x000900005c020123UL, 0x0000000f00000000UL, 0x0000bfff000017ffUL,
  0x0000000000000000UL, 0x00000001060403f1UL, 0x000000005c0c0043UL, 0x5c0b7c0020422042UL,
  0x5d00200300000001UL, 0x0000810efddb1fa5UL, 0x00001bcffe3f33d3UL, 0x0000dbe2fe323dc7UL,
  0x000023b4fe0d194aUL, 0x00007d3dfe1b35edUL, 0x00003d6afe472481UL, 0x000073d0fe192506UL,
  0x0000f856fe031d0aUL, 0x0000793bfe362eaeUL, 0x0000befffd8d340eUL, 0x00002678fe592d9fUL,
  0x00005c82fdea1d5eUL, 0x0000dd45fe4124d8UL, 0x000020f1fe2d38d7UL, 0x000071f9fe452f34UL,
  0x00007d50fe3f1e20UL, 0x000018defdf731f4UL, 0x000089e6fe111af7UL, 0x0000c748fe2f6037UL,
  0x0000b9b6fe5932ceUL, 0x00009d4dfe7a2b5bUL, 0x0000d265fe3b1ed4UL, 0x00002ec9fdae1c32UL,
  0x0000902dfe223e6cUL, 0x00005b31fe0c2d5aUL, 0x0000e2b0fe2d2ee5UL, 0x0000eb2afdeb3500UL,
  0x0000c8a3fdd32b94UL, 0x0000f817fe001f03UL, 0x0000d0defe371ec1UL, 0x0000922cfe0a1c86UL,
  0x00009e6afe341cf0UL, 0x000060a7fe0c2686UL, 0x0000322efe342b1fUL, 0x00009ca5fe4321a6UL,
  0x000020d0fe3b2fa3UL, 0x00007f7ffdff3367UL, 0x00006c20fdda3476UL, 0x000058fffe3a28deUL,
  0x0000f2b3fde52564UL, 0x0000f425fdf81de1UL, 0x00000c19fe2329a2UL, 0x00004584fe38259aUL,
  0x00000748fe5e210fUL, 0x00009953fe0e331cUL, 0x000022b3fdfe3827UL, 0x0000a441fe11424bUL,
  0x000037e7fde8310cUL, 0x0000e443fde5240eUL, 0x00006f0afe473280UL, 0x000041a0fe181bd5UL,
  0x00008983fdf22bd6UL, 0x00000a67fe252128UL, 0x00005faafe102dd0UL, 0x00006e2bfdd12472UL,
  0x0000fcdefe24250fUL, 0x00004029fde02750UL, 0x0000a960fde5335fUL, 0x000077f0fdf924f4UL,
  0x00009f6efe441cfaUL, 0x0000d36dfe0e2933UL, 0x0000ba6ffde31cb5UL, 0x0000c684fe63289aUL,
  0x0000047efe112bd7UL, 0x00004bdafded1a38UL, 0x0000c266fe662a9aUL, 0x00009578fe46229eUL,
  0x0000973efe34192cUL, 0x00008924fe543b7fUL, 0x00000079fdff2183UL, 0x00001940fe523444UL,
  0x0000b692fe46295eUL, 0x0000505afe0c3d10UL, 0x00000067fe542907UL, 0x0000ab45fe022299UL,
  0x000040befdcb1b46UL, 0x00001ee3fe5d2baeUL, 0x0000c152fe44235aUL, 0x0000cff4fe3e1aabUL,
  0x00001b1efe253730UL, 0x0000afaafdfe35d0UL, 0x00004a49fe0e2e29UL, 0x00001b13fdcd288bUL,
  0x0000305cfe041fe4UL, 0x00006d9cfe2f245eUL, 0x00006fc3fe53452eUL, 0x00007f8dfe211a32UL,
  0x0000a764fdc4266aUL, 0x000024fdfe1d2db4UL, 0x0000dcdffde21a5eUL, 0x00005bb7fdbf35dcUL,
  0x0000ca14fe1e40acUL, 0x0000ae6afe031c3dUL, 0x000004fafdf72762UL, 0x0000c56dfe351f59UL,
  0x0000e898fe1c28aaUL, 0x00001cedfe2626b8UL, 0x00000b67fe3b34d4UL, 0x00003fa1fe3d40baUL,
  0x000077e7fda12702UL, 0x0000a1f6fde7367bUL, 0x0000b6c8fdd32409UL, 0x00006894fe252357UL,
  0x00007e12fe132cdbUL, 0x00007610fe4838fdUL, 0x0000b574fe192880UL, 0x0000f927fe2724cbUL,
  0x000009d9fe2b18e1UL, 0x0000e184fe571a30UL, 0x00007d49fe0323e9UL, 0x0000952efdd534cfUL,
  0x00006559fe0825a0UL, 0x00008510fe192bd9UL, 0x0000928cfe2d3c55UL, 0x0000e728fe302084UL,
  0x00002130fe483053UL, 0x00008f21fe1e45b2UL, 0x0000e42afe0a3277UL, 0x0000ac2bfdda3816UL,
  0x000085cffe181b1eUL, 0x000016ddfe4d2981UL, 0x00001840fe131fc5UL, 0x0000f240fdf2246cUL,
  0x000032fefde5171fUL, 0x0000d421fe311eacUL, 0x0000467ffe193203UL, 0x0000f39cfe312158UL,
  0x0000d689fe2e2638UL, 0x6000004200802261UL, 0x1500000008000000UL, 0x0007000060027c00UL,
  0x0000400060070043UL, 0x600c004300000020UL, 0x1041104100000000UL, 0x34007c0000802101UL,
  0x3402012300080000UL, 0x00180010342f8000UL, 0x0000040000400010UL, 0x0000000100000040UL,
  0x0000002400000000UL, 0x340c004200100000UL, 0x0000000700000006UL, 0x00000008340d0043UL,
  0x34110043342fe03fUL, 0x0000000000000000UL, 0x2c007c00008020c1UL, 0x2c02004300080184UL,
  0x000020003421c040UL, 0x000000002c0500c3UL, 0x0000000000000000UL, 0x0000002400000000UL,
  0x2c0c004200100000UL, 0x0000000700000006UL, 0x000000012c0d0043UL, 0x2c1100433421e07fUL,
  0x0000000000000000UL, 0x1c007c0000802041UL, 0x1c02012300080000UL, 0x00180010342f8010UL,
  0x0000040000400010UL, 0x0000000100000040UL, 0x0000002400000000UL, 0x1c0c004200100000UL,
  0x0000000700000006UL, 0x000000081c0d0043UL, 0x1c110043342fe03fUL, 0x0000000000000000UL,
  0x28007c00008020a1UL, 0x2802012300080000UL, 0x00180010342f8020UL, 0x0000040000400010UL,
  0x0000000100000040UL, 0x0000002400000000UL, 0x280c004200100000UL, 0x0000000700000006UL,
  0x00000008280d0043UL, 0x28110043342fe03fUL, 0x0000000000000000UL, 0x14007c0000802001UL,
  0x1402012300080000UL, 0x00180010342f8030UL, 0x0000040000400010UL, 0x0000000100000040UL,
  0x0000002400000000UL, 0x140c004200100000UL, 0x0000000700000006UL, 0x00000008140d0043UL,
  0x14110043342fe03fUL, 0x0000000000000000UL, 0x20007c0000802061UL, 0x2002012300080008UL,
  0x00180010342e0000UL, 0x0000080000800010UL, 0x0000000800000010UL, 0x000000240000c000UL,
  0x200c004200100000UL, 0x0000000700000006UL, 0x00000008200d0043UL, 0x20110043342ec03fUL,
  0x0000000000000000UL, 0x0000002710057c00UL, 0x00000001100c00a3UL, 0x0000001b0000000dUL,
  0x0000000d00000011UL, 0x00000005101200c3UL, 0x000000170000000dUL, 0x0000000d0000000bUL,
  0x101e7c0000000019UL, 0x10207c0000000015UL, 0x10007c0000000025UL, 0x2000200100000001UL,
  0x001000213c007c00UL, 0x0010003540007c00UL, 0x0010002144007c00UL, 0x0010002148007c00UL,
  0x600020015c002001UL, 0x1c00200114002001UL, 0x2c00200128002001UL, 0x20007fe434002001UL,
  0x0000000000000064UL, 0x0000000210007c00UL, 0x0000006410000424UL, 0x10007c0000000000UL,
  0x10007bc440000000UL, 0x0000000000000064UL, 0x0000000010057c00UL, 0x00000000100c00a3UL,
  0x0000000000000000UL, 0x0000000000000000UL, 0x00000000101200c3UL, 0x0000000000000000UL,
  0x0000000000000000UL, 0x101e7c0000000000UL, 0x10207c0000000000UL, 0x20007c0000000000UL,
  0x2000042400000002UL, 0x0000000000000064UL, 0x4000000020007c00UL, 0x0000006420007bc4UL,
  0x0080006100000000UL, 0x000000023c007c00UL, 0x000000643c000424UL, 0x3c007c0000000000UL,
  0x3c007bc440000000UL, 0x0000000000000064UL, 0x40007c0000800141UL, 0x4000042400000002UL,
  0x0000000000000064UL, 0x4000000040007c00UL, 0x0000006440007bc4UL, 0x0080016100000000UL,
  0x0000000244007c00UL, 0x0000006444000424UL, 0x44007c0000000000UL, 0x44007bc440000000UL,
  0x0000000000000064UL, 0x48007c0000800181UL, 0x4800042400000002UL, 0x0000000000000064UL,
  0x4000000048007c00UL, 0x0000006448007bc4UL, 0x008001a100000000UL, 0x080000025c007c00UL,
  0x000000645c000424UL, 0x5c007c0000000000UL, 0x5c007bc448000000UL, 0x0000000000000064UL,
  0x60007c0000800241UL, 0x6000042408000002UL, 0x0000000000000064UL, 0x4800000060007c00UL,
  0x0000006460007bc4UL, 0x0080026100000000UL, 0x0000000214007c00UL, 0x0000006414000424UL,
  0x14007c0000000000UL, 0x14007bc440000000UL, 0x0000000000000064UL, 0x1c007c0000800001UL,
  0x1c00042400000002UL, 0x0000000000000064UL, 0x400000001c007c00UL, 0x000000641c007bc4UL,
  0x0080004100000000UL, 0x0000000228007c00UL, 0x0000006428000424UL, 0x28007c0000000000UL,
  0x28007bc440000000UL, 0x0000000000000064UL, 0x2c007c00008000a1UL, 0x2c00042400000002UL,
  0x0000000000000064UL, 0x400000002c007c00UL, 0x000000642c007bc4UL, 0x008000c100000000UL,
  0x0000000234007c00UL, 0x0000006434000424UL, 0x34007c0000000000UL, 0x34007bc440000000UL,
  0x0000000000000064UL, 0x0000011d00800101UL, 0x3c007c0000802141UL, 0x3c0200e300100034UL,
  0x0000115501010303UL, 0x0018001010634303UL, 0x00170000000f0000UL, 0x3c0a7c0000000001UL,
  0x3c0d7c0000000000UL, 0x0080228100000000UL, 0x0800000064000042UL, 0x64020123156000fcUL,
  0x0000000000090000UL, 0x0000017f00000000UL, 0x000000000000bfffUL, 0x0604020000000000UL,
  0x640c004300000001UL, 0x2042204200000000UL, 0x00000001640b7c00UL, 0xfde1367c65002003UL,
  0xfded2fed00009e34UL, 0xfdf64df000008923UL, 0xfdaf4b8800005f3fUL, 0xfdf324f3000002b9UL,
  0xfe5736680000d290UL, 0xfe1e2e8600003dfcUL, 0xfdf558f8000059afUL, 0xfe3640cf000071a1UL,
  0xfdc62124000004bbUL, 0xfdf420d30000c824UL, 0xfdfa46fa000006ecUL, 0xfdce3b9c0000863cUL,
  0xfde0276900001ce4UL, 0xfe4d458c00000486UL, 0xfdf942990000f7ebUL, 0xfdfc58af00007f12UL,
  0xfe23225d00001a4dUL, 0xfdf720c200001136UL, 0xfddc329700007d95UL, 0xfe385d3600007abaUL,
  0xfdf55066000092ecUL, 0xfe003f7f0000f346UL, 0xfe563adc000086edUL, 0xfdf032b900007a6dUL,
  0xfe2e2e1f0000b7faUL, 0xfdc338730000a957UL, 0xfdfd499a0000d46bUL, 0xfdf851c400001ffbUL,
  0xfdfb494f000092f8UL, 0xfe0b316d00007440UL, 0xfddc693d0000c0bfUL, 0xfdf52bd600008b20UL,
  0xfdf5690f0000e01eUL, 0xfdf745ec000088f9UL, 0xfe4a29810000284eUL, 0xfe4411eb00008892UL,
  0xfe3a1c280000a25cUL, 0xfe2e2d3a000065f5UL, 0xfe0b46750000ed45UL, 0xfdda45dc0000025aUL,
  0xfe2237fb00009448UL, 0xfdb73008000069c5UL, 0xfe54392d00005e62UL, 0xfe253af900007b59UL,
  0xfe0a44030000d676UL, 0xfdfd31140000fdf3UL, 0xfe531f8700008e40UL, 0xfe1243f70000f31dUL,
  0xfdf1442e00002f8aUL, 0xfe273de80000491bUL, 0xfdef2d870000e64cUL, 0xfe3150740000d115UL,
  0xfdd328a100006b18UL, 0xfe2b29a400002abfUL, 0xfe1425e10000ff55UL, 0xfde12b6b00009f3bUL,
  0xfdfa3e9e00009938UL, 0xfdbf4a7a0000212cUL, 0xfe0040f40000be42UL, 0xfdc23d46000030b7UL,
  0xfe1d2310000084a5UL, 0xfe16450600009995UL, 0xfda648ad00002d06UL, 0xfdf25072000041eaUL,
  0xfdb538c200001844UL, 0xfdfd3cb80000de20UL, 0xfdfe5a09000054e5UL, 0xfe403ade00003dd2UL,
  0xfe5c2cd70000c2b9UL, 0xfdfb45e7000048f6UL, 0xfdfd37de0000cd41UL, 0xfdf242610000ae69UL,
  0xfe2828a300005271UL, 0xfde245d70000d0c2UL, 0xfe32181d0000067cUL, 0xfe3f3d330000035dUL,
  0xfe582f3800000d34UL, 0xfdf93c330000782bUL, 0xfdd73a400000ae28UL, 0xfde6320f000086ceUL,
  0xfdfb2c8c00002396UL, 0xfdf53f910000f43fUL, 0xfe21345e0000d9c0UL, 0xfe543a0000009942UL,
  0xfdf54754000039c9UL, 0xfdfd4bd20000077dUL, 0xfdf5391c0000d0d2UL, 0xfe673a1f0000d256UL,
  0xfe014ac10000461aUL, 0xfe4e24370000a47bUL, 0xfdcf286e00009482UL, 0xfe4214370000a2adUL,
  0xfdc336400000bfd0UL, 0xfdfc4c3700006b1fUL, 0xfdf13ed80000d635UL, 0xfdfe471100001e1aUL,
  0xfe48225c00008ae4UL, 0xfdf640e5000081c2UL, 0xfdd9302c00009eedUL, 0xfe3a3282000072fdUL,
  0xfdfc4d6500009f99UL, 0xfdd15d320000994cUL, 0xfe2d20bd0000388aUL, 0xfe5a229f000069b7UL,
  0xfdd739840000fc12UL, 0xfdbc28d000001c66UL, 0xfdf154d30000301aUL, 0xfe5c2e4e0000a0bdUL,
  0xfdf6468700003fefUL, 0xfddd3c4200004115UL, 0xfe60410c00003176UL, 0xfde82fb700005c88UL,
  0xfdfe471300002a85UL, 0xfdc23ebc00005590UL, 0xfde254690000b48dUL, 0xfdf92f12000013d9UL,
  0xfe00276b00006d3fUL, 0xfe4a191b00000000UL, 0xfdf15ce70000f6ddUL, 0xfdbf480e000064a7UL,
  0xfddb60c90000a633UL, 0xfe3321bd0000f113UL, 0xfe0b36ce0000c268UL, 0xfded56860000f631UL,
  0xfdf945380000ca7eUL, 0xfe632ace0000f331UL, 0xfdea476300008c9fUL, 0x008022a100006c7dUL,
  0x0800000068000042UL, 0x68027c0015000000UL, 0x6807004300070000UL, 0x0000002000004000UL,
  0x00000000680c0043UL, 0x008020a110411041UL, 0x0008000028007c00UL, 0x342e000028020123UL,
  0x0080000100180010UL, 0x0000000000000800UL, 0x0000000100000001UL, 0x0010000000000024UL,
  0x00000006280c0042UL, 0x280d004300000007UL, 0x342ec03f00000080UL, 0x0000000028110043UL,
  0x0080202100000000UL, 0x0008018418007c00UL, 0x342208d018020043UL, 0x180500c300000480UL,
  0x0000000000000000UL, 0x0000000000000000UL, 0x0010000000000024UL, 0x00000006180c0042UL,
  0x180d004300000007UL, 0x34220d8f00000001UL, 0x0000000018110043UL, 0x0080208100000000UL,
  0x0008000824007c00UL, 0x342ec00024020123UL, 0x0080000100180010UL, 0x0000000100000800UL,
  0x0000c00000000080UL, 0x0010000000000024UL, 0x00000006240c0042UL, 0x240d004300000007UL,
  0x342f803f00000080UL, 0x0000000024110043UL, 0x10067c0000000000UL, 0x100c00430000002bUL,
  0x000000030000000bUL, 0x0000001510227c00UL, 0x0000002910247c00UL, 0x0000000110007c00UL,
  0x3c007c0024002001UL, 0x6400200100100035UL, 0x1800200168002001UL, 0x24007fe428002001UL,
  0x0000000000000064UL, 0x0000000210007c00UL, 0x0000006410000424UL, 0x10007c0000000000UL,
  0x10007bc440000000UL, 0x0000000000000064UL, 0x0000000010067c00UL, 0x00000000100c0043UL,
  0x10227c0000000000UL, 0x10247c0000000000UL, 0x24007c0000000000UL, 0x2400042400000002UL,
  0x0000000000000064UL, 0x4000000024007c00UL, 0x0000006424007bc4UL, 0x0080008100000000UL,
  0x000000023c007c00UL, 0x000000643c000424UL, 0x3c007c0000000000UL, 0x3c007bc440000000UL,
  0x0000000000000064UL, 0x64007c0000800141UL, 0x6400042408000002UL, 0x0000000000000064UL,
  0x4800000064007c00UL, 0x0000006464007bc4UL, 0x0080028100000000UL, 0x0800000268007c00UL,
  0x0000006468000424UL, 0x68007c0000000000UL, 0x68007bc448000000UL, 0x0000000000000064UL,
  0x18007c00008002a1UL, 0x1800042400000002UL, 0x0000000000000064UL, 0x4000000018007c00UL,
  0x0000006418007bc4UL, 0x0080002100000000UL, 0x0000000228007c00UL, 0x0000006428000424UL,
  0x28007c0000000000UL, 0x28007bc440000000UL, 0x0000000000000064UL, 0x0000013d008000a1UL,
  0x40007c0000802161UL, 0x400200e310d00034UL, 0x0000110010800101UL, 0x0018080010e34404UL,
  0x0017000007ff0000UL, 0x400a7c0000000001UL, 0x400d7c0000000000UL, 0x0080224100000000UL,
  0x080000005c000042UL, 0x5c020123156000fcUL, 0x0000000000090000UL, 0x000017ff0000000fUL,
  0x000000000000bfffUL, 0x060403f100000000UL, 0x5c0c004300000001UL, 0x2042204200000000UL,
  0x000000015c0b7c00UL, 0xfdfb331b5d002003UL, 0xfdec2aa000002f1dUL, 0xfe3d20d000000fb6UL,
  0xfdba343c0000826cUL, 0xfe1728ae00005c37UL, 0xfe172a88000072c6UL, 0xfe352b6e0000dc9fUL,
  0xfde22ffd0000f07cUL, 0xfe174c9b0000a6deUL, 0xfe3439c800009094UL, 0xfe332b690000df2aUL,
  0xfdfe297800006f47UL, 0xfdf82e1c00006bacUL, 0xfddd3e5e000001f5UL, 0xfdfa3b15000021a6UL,
  0xfdde320e000054cbUL, 0xfe302e830000d22eUL, 0xfe082cf60000ae27UL, 0xfdbf34fd00009ddbUL,
  0xfe1a2ddf000099a6UL, 0xfde544000000d51eUL, 0xfe2a2ed900005addUL, 0xfe1c2d7b00002319UL,
  0xfdc7476f0000fd9cUL, 0xfdfd536a0000e13dUL, 0xfe21278e000098cfUL, 0xfdd7356200005321UL,
  0xfe2d31d50000b067UL, 0xfe1921e20000fc91UL, 0xfe1741d20000789fUL, 0xfde821810000c456UL,
  0xfd992bcc00006b1dUL, 0xfdf62a2000006b63UL, 0xfe23295c000035adUL, 0xfe08395c0000d905UL,
  0xfe2f21a80000fa05UL, 0xfe5329c600005299UL, 0xfe0736e3000096f0UL, 0xfdf933d60000da4aUL,
  0xfdfd35370000bc5fUL, 0xfdd84350000034ebUL, 0xfd9636480000c1a2UL, 0xfe5e22ae0000de19UL,
  0xfe34305b000061fbUL, 0xfdf544a40000c826UL, 0xfe2723ee0000dc81UL, 0xfdf7230e0000c54fUL,
  0xfe1e34da0000c00cUL, 0xfdfc298b0000c2e3UL, 0xfdf731fc00004719UL, 0xfe32338800000afaUL,
  0xfdee275700005ff5UL, 0xfdf037e400001decUL, 0xfe283c150000bb19UL, 0xfdef38f000006930UL,
  0xfe3c27ab00007c7dUL, 0xfdf72fc700007818UL, 0xfe10269a0000496eUL, 0xfe4540210000a995UL,
  0xfe2b27670000374aUL, 0xfe592f530000c992UL, 0xfe09269d0000ab31UL, 0xfddf2fa60000ed59UL,
  0xfe05252e00007c5eUL, 0xfdba318800001793UL, 0xfdba3215000093ccUL, 0xfe1531c700005b02UL,
  0xfdc7281300000f8bUL, 0xfe382ed80000ff4cUL, 0xfde7420b0000dcefUL, 0xfe0b309700000645UL,
  0xfe2545db00000e4bUL, 0xfe1a3a800000925dUL, 0xfe0c37d100006fdfUL, 0xfe29375d00006679UL,
  0xfdf0347000008272UL, 0xfde337320000bd4fUL, 0xfdfe24b000006b11UL, 0xfe2826b70000ccbdUL,
  0xfe2c20b100009f4dUL, 0xfdd32eed0000437aUL, 0xfddf22050000263eUL, 0xfe6d38f900002678UL,
  0xfe22393a0000c30cUL, 0xfdff21a1000085b2UL, 0xfe25320500008e80UL, 0xfde731f1000044e2UL,
  0xfe26263f0000bf9eUL, 0xfe1e2eb20000af8bUL, 0xfe2433120000f3e3UL, 0xfe2231f200006e60UL,
  0xfddd32a20000dcd9UL, 0xfdc824ed00000afeUL, 0xfdad29120000ff38UL, 0xfe4a28d00000236fUL,
  0xfe5a283700000783UL, 0xfe322a4700007723UL, 0xfe29306a0000a5bcUL, 0xfe8834450000d792UL,
  0xfe204a2b0000c092UL, 0xfe2f28490000f466UL, 0xfe58325a00005694UL, 0xfdc94c0c00008c5fUL,
  0xfe0e2936000078b5UL, 0xfe262d8800006d6dUL, 0xfdf0337f00001e10UL, 0xfe2126f70000c651UL,
  0xfe4320420000e00eUL, 0xfe102eaf000066dbUL, 0xfe1926510000be43UL, 0xfe7323cc0000e6e4UL,
  0xfded250900005c49UL, 0xfe08242600009043UL, 0xfe283f1a000027a8UL, 0xfdee29f30000dee7UL,
  0xfe334351000003e3UL, 0xfe13250a00002135UL, 0xfdf529a300000236UL, 0xfe2644c400008f69UL,
  0xfdc6387e00008344UL, 0xfe1d29460000c395UL, 0xfde51f4b00005f63UL, 0xfdcf2f030000d96cUL,
  0xfdf8221200001814UL, 0xfe312fbb0000309bUL, 0xfe213f730000b5d2UL, 0xfe002d4f00000ab5UL,
  0xfe26249300004f4aUL, 0x008022610000d4dfUL, 0x0800000060000042UL, 0x60027c0015000000UL,
  0x6007004300070000UL, 0x0000002000004000UL, 0x00000000600c0043UL, 0x0080206110411041UL,
  0x0888030020007c00UL, 0x342ec00020020043UL, 0x200500c300004000UL, 0x0000000000000000UL,
  0x0000c00000000008UL, 0x0010000000000024UL, 0x00000006200c0042UL, 0x200d004300000007UL,
  0x342f803f00000008UL, 0x0000000020110043UL, 0x0080210100000000UL, 0x0888018434007c00UL,
  0x3421803034020043UL, 0x340500c300001558UL, 0x0000000000000000UL, 0x0000000000000000UL,
  0x0010000000000024UL, 0x00000006340c0042UL, 0x340d004300000007UL, 0x3421c07700000001UL,
  0x0000000034110043UL, 0x008020a100000000UL, 0x0008000828007c00UL, 0x342e000028020123UL,
  0x0080001000180010UL, 0x0000001000000800UL, 0x0000c00000000008UL, 0x0010000000000024UL,
  0x00000006280c0042UL, 0x280d004300000007UL, 0x342ec03f00000008UL, 0x0000000028110043UL,
  0x10077c0000000000UL, 0x100f004300000027UL, 0x0000001100000007UL, 0x00000017101e7c00UL,
  0x0000002510207c00UL, 0x0000000110007c00UL, 0x40007c0028002001UL, 0x5c00200110d00035UL,
  0x2000200160002001UL, 0x28007fe434002001UL, 0x0000000000000064UL, 0x0000000210007c00UL,
  0x0000006410000424UL, 0x10007c0000000000UL, 0x10007bc440000000UL, 0x0000000000000064UL,
  0x0000000010077c00UL, 0x00000000100f0043UL, 0x101e7c0000000000UL, 0x10207c0000000000UL,
  0x28007c0000000000UL, 0x2800042400000002UL, 0x0000000000000064UL, 0x4000000028007c00UL,
  0x0000006428007bc4UL, 0x008000a100000000UL, 0x0000000240007c00UL, 0x0000006440000424UL,
  0x40007c0000000000UL, 0x40007bc440000000UL, 0x0000000000000064UL, 0x5c007c0000800161UL,
  0x5c00042408000002UL, 0x0000000000000064UL, 0x480000005c007c00UL, 0x000000645c007bc4UL,
  0x0080024100000000UL, 0x0800000260007c00UL, 0x0000006460000424UL, 0x60007c0000000000UL,
  0x60007bc448000000UL, 0x0000000000000064UL, 0x20007c0000800261UL, 0x2000042400000002UL,
  0x0000000000000064UL, 0x4000000020007c00UL, 0x0000006420007bc4UL, 0x0080006100000000UL,
  0x0000000234007c00UL, 0x0000006434000424UL, 0x34007c0000000000UL, 0x34007bc440000000UL,
  0x0000000000000064UL, 0x0000015d00800101UL, 0x44007c0000802181UL, 0x440200e320100034UL,
  0x0000220002020303UL, 0x0018002010634303UL, 0x00170000001f0000UL, 0x440a7c0000000001UL,
  0x440d7c0001000200UL, 0x0080228100000000UL, 0x0800000064000042UL, 0x64020123156000fcUL,
  0x0000000000090000UL, 0x000000bf00000001UL, 0x0000000000002fffUL, 0x060403ff00000000UL,
  0x640c004300000001UL, 0x2042204200000000UL, 0x00000001640b7c00UL, 0xfddb1bfe65002003UL,
  0xfdc319a100003ecaUL, 0xfe5d237000006d96UL, 0xfe4419330000a954UL, 0xfe152a9c00003dd4UL,
  0xfe383bba00005878UL, 0xfdd724c200005f12UL, 0xfdf326af0000cbc1UL, 0xfdf9268f0000cc4cUL,
  0xfdbf1f0a0000bb13UL, 0xfdae258d0000f7a9UL, 0xfdf72ba2000026e4UL, 0xfdfb29ee00005f27UL,
  0xfdd224c100008429UL, 0xfdfe23df000013c2UL, 0xfe6222000000e584UL, 0xfde32b430000a8b6UL,
  0xfdbe1c6e0000e22dUL, 0xfde221460000258fUL, 0xfdd62eb000008714UL, 0xfe5c243600005953UL,
  0xfdc62d78000093d6UL, 0xfdfd27970000f658UL, 0xfde620210000d5c0UL, 0xfddf2199000061d5UL,
  0xfe4e1c0f000073f5UL, 0xfdfd26bf0000abd9UL, 0xfda8345400007221UL, 0xfddb24ea000082eeUL,
  0xfe6425980000319cUL, 0xfdea27590000ab64UL, 0xfdfd23fe00007158UL, 0xfe51300b00008a1eUL,
  0xfdd6212a00008423UL, 0xfe4a12f2000086e1UL, 0xfe6b26ca0000c740UL, 0xfe671d2600003315UL,
  0xfdfd24860000a535UL, 0xfdee2d7700001344UL, 0xfddb23380000989aUL, 0xfdd21dd20000ae97UL,
  0xfdcd1ed100002a16UL, 0xfdd024d70000f7dcUL, 0xfe541d6d00002b9bUL, 0xfdfd3979000095f8UL,
  0xfe4228b70000cfa0UL, 0xfe00251a0000d621UL, 0xfe011ff40000581cUL, 0xfded20c600002f8aUL,
  0xfdd72bf000005302UL, 0xfdc426ba0000dbdeUL, 0xfe4c15840000ecf9UL, 0xfdd2181d0000ee09UL,
  0xfdd11d6e00000c31UL, 0xfdcf184d00007102UL, 0xfe0f3b850000c1d5UL, 0xfdce27840000066bUL,
  0xfe511a1c00002432UL, 0xfdb92c8e00002038UL, 0xfdbf1fc90000f787UL, 0xfe5821db00006b3bUL,
  0xfe5e22e80000246cUL, 0xfde430fd00008a9bUL, 0xfdf32a1c000046b2UL, 0xfdc41cfa0000af2aUL,
  0xfde1339000000da6UL, 0xfdd929c10000fd3aUL, 0xfde726760000ea68UL, 0xfdc02c7a0000d488UL,
  0xfdc520e3000095c6UL, 0xfdfa2f2d0000324dUL, 0xfdc41d980000d712UL, 0xfdee44090000f8d1UL,
  0xfdbf1cf50000071cUL, 0xfdf0256f0000e886UL, 0xfdbb283e00003e67UL, 0xfdb3286000007226UL,
  0xfdc31da800001dfaUL, 0xfdfc2d4a00002650UL, 0xfe4d2f0d0000708cUL, 0xfdd426400000bdf6UL,
  0xfdf6287c000050abUL, 0xfdba20050000b585UL, 0xfe5a1e5800004de8UL, 0xfdc320930000af84UL,
  0xfdc618fd00009ad3UL, 0xfdc927880000b631UL, 0xfe712d5d00005099UL, 0xfdc522a10000e9c5UL,
  0xfe5523290000fc1bUL, 0xfdbc25070000c51bUL, 0xfdc91efd0000139bUL, 0xfdeb2f5400005911UL,
  0xfdef30c400004b31UL, 0xfdb820930000c8c6UL, 0xfdd02aca0000eae9UL, 0xfdae26bc000062dfUL,
  0xfdb6284300007248UL, 0xfe602f93000015c5UL, 0xfdd81e8300002538UL, 0xfe44239300003820UL,
  0xfddc240e00005d93UL, 0xfdc21ee80000d84aUL, 0xfdcd20020000758eUL, 0xfdb8235d00009024UL,
  0xfdcc1c2c000075cbUL, 0xfdc11bb70000ae00UL, 0xfdfa3f3700008d0cUL, 0xfe4e207c0000b8d1UL,
  0xfdba1f4a0000da30UL, 0xfdbe22ab00009ad6UL, 0xfdfa20550000bdc6UL, 0xfe5c1eaa0000e69cUL,
  0xfe5720c300009b94UL, 0xfdb622db0000059dUL, 0xfdc21f64000067dfUL, 0xfdda2dd60000b973UL,
  0xfdf4222f000004d6UL, 0xfddc1e8600002ea7UL, 0xfdbd1f3b00008f67UL, 0xfdc623810000da1eUL,
  0xfdf7314c00005b56UL, 0xfdfb2585000080d7UL, 0xfdff28d200002538UL, 0xfe18315500007120UL,
  0xfdc027c7000022deUL, 0xfdbb26f800009a9aUL, 0xfdf926bd0000d88eUL, 0x008022a100009b42UL,
  0x0800000068000042UL, 0x68027c0015000000UL, 0x6807004300070000UL, 0x0000002000004000UL,
  0x00000000680c0043UL, 0x0080212110411041UL, 0x0088020038007c00UL, 0x342e000038020123UL,
  0x0080000100180010UL, 0x0000000000000800UL, 0x0000000200000001UL, 0x0010000000000024UL,
  0x00000006380c0042UL, 0x380d004300000007UL, 0x342ec03f00000040UL, 0x0000000038110043UL,
  0x0080204100000000UL, 0x000801841c007c00UL, 0x3421ea501c020043UL, 0x1c0500c300000900UL,
  0x0000000000000000UL, 0x0000000000000000UL, 0x0010000000000024UL, 0x000000061c0c0042UL,
  0x1c0d004300000007UL, 0x3421f38f00000001UL, 0x000000001c110043UL, 0x0080200100000000UL,
  0x0008000814007c00UL, 0x342ec00014020123UL, 0x00800002000c0008UL, 0x0000000200000400UL,
  0x0000300000000040UL, 0x0010000000000024UL, 0x00000006140c0042UL, 0x140d004300000007UL,
  0x342ef03f00000040UL, 0x0000000014110043UL, 0x10027c0000000000UL, 0x101200430000002bUL,
  0x0000000500000013UL, 0x0000001910227c00UL, 0x0000002910247c00UL, 0x0000000110007c00UL,
  0x44007c0014002001UL, 0x6400200120100035UL, 0x1c00200168002001UL, 0x14007fe438002001UL,
  0x0000000000000064UL, 0x0000000210007c00UL, 0x0000006410000424UL, 0x10007c0000000000UL,
  0x10007bc440000000UL, 0x0000000000000064UL, 0x0000000010027c00UL, 0x0000000010120043UL,
  0x10227c0000000000UL, 0x10247c0000000000UL, 0x14007c0000000000UL, 0x1400042400000002UL,
  0x0000000000000064UL, 0x4000000014007c00UL, 0x0000006414007bc4UL, 0x0080000100000000UL,
  0x0000000244007c00UL, 0x0000006444000424UL, 0x44007c0000000000UL, 0x44007bc440000000UL,
  0x0000000000000064UL, 0x64007c0000800181UL, 0x6400042408000002UL, 0x0000000000000064UL,
  0x4800000064007c00UL, 0x0000006464007bc4UL, 0x0080028100000000UL, 0x0800000268007c00UL,
  0x0000006468000424UL, 0x68007c0000000000UL, 0x68007bc448000000UL, 0x0000000000000064UL,
  0x1c007c00008002a1UL, 0x1c00042400000002UL, 0x0000000000000064UL, 0x400000001c007c00UL,
  0x000000641c007bc4UL, 0x0080004100000000UL, 0x0000000238007c00UL, 0x0000006438000424UL,
  0x38007c0000000000UL, 0x38007bc440000000UL, 0x0000000000000064UL, 0x0000017d00800121UL,
  0x48007c00008021a1UL, 0x480200e310d00034UL, 0x0000110010800101UL, 0x000c040010e34404UL,
  0x000b000003ff0000UL, 0x480a7c0000000001UL, 0x480d7c0000000000UL, 0x0080224100000000UL,
  0x080000005c000042UL, 0x5c020123156000fcUL, 0x0000000000088000UL, 0x000005ff0000000fUL,
  0x0000000000005fffUL, 0x040403f100000000UL, 0x5c0c004300000001UL, 0x2042204200000000UL,
  0x000000015c0b7c00UL, 0xff0b1a6f5d004003UL, 0xff2525d000001e9eUL, 0xff0819cd00009e51UL,
  0xff12410500001346UL, 0xff0618060000cf71UL, 0xfef61d830000f7caUL, 0xff0b20df0000d9a1UL,
  0xff2c1e230000908bUL, 0xff021edf000056b7UL, 0xff1929d9000042d4UL, 0xfee31e8c00004c16UL,
  0xff2d179c0000ea48UL, 0xfeec24f90000ad38UL, 0xfed62b330000e68cUL, 0xff161b3800009d6eUL,
  0xff0d1aef0000354bUL, 0xff111b4c00003c76UL, 0xff2031fe0000df78UL, 0xff1f255e00007aa0UL,
  0xfefb1abe000089c4UL, 0xff26195d00003f46UL, 0xff08173a0000731aUL, 0xff28234a0000bfdeUL,
  0xff291f96000077f6UL, 0xff061b950000ab93UL, 0xff141a940000563bUL, 0xff0811710000c886UL,
  0xfee821a20000038aUL, 0xfedb20aa0000e8feUL, 0xff0118bf0000fa12UL, 0xff0016980000c9d6UL,
  0xff272df40000ebd3UL, 0xff30211900001095UL, 0xff061da50000549eUL, 0xfed5230900001d9cUL,
  0xff0a15e4000036abUL, 0xff331fe50000f64eUL, 0xff14211900001312UL, 0xff002082000001e0UL,
  0xff291ad000005964UL, 0xff2f186d0000e525UL, 0xfef91e2e00009ba7UL, 0xff0d1c570000a60dUL,
  0xfefb1ff5000096efUL, 0xff06163e0000c56bUL, 0xff2e291500003221UL, 0xfefe18d50000bda2UL,
  0xff1720770000a2d1UL, 0xff081de0000079beUL, 0xfef51f2b00000ba4UL, 0xfef11e6100009afbUL,
  0xff271ca50000ea93UL, 0xfef2207a0000bc99UL, 0xff181ab00000ca37UL, 0xff221f4d000078f4UL,
  0xfeeb21570000f60eUL, 0xfefd2d2b0000bba5UL, 0xff2a3daf00005a77UL, 0xff0f19b300006423UL,
  0xff1c327a00001206UL, 0xff3e1d060000d61aUL, 0xff151e9300007a7eUL, 0xff151b7a00002778UL,
  0xfee723e700003ccdUL, 0xfef824780000fddcUL, 0xff1d1d87000060f7UL, 0xff1c180000007672UL,
  0xff0a1354000075d5UL, 0xfee723bb00006a55UL, 0xfef11aa400001654UL, 0xfed327a100006e64UL,
  0xff162fb1000074d7UL, 0xff1d2a4a00007bc9UL, 0xfefc1dad0000fb3fUL, 0xfef4258700004c42UL,
  0xff2325f300007957UL, 0xff041aef0000d3b4UL, 0xff161d6000002b35UL, 0xff101ae9000007f6UL,
  0xfeff16370000d15bUL, 0xff1d1bc500006e38UL, 0xff4521c000004942UL, 0xff1227e400002555UL,
  0xfefd1dae00003b41UL, 0xff031cad0000fe2fUL, 0xff23285e000012d4UL, 0xfefb21f400006e39UL,
  0xfed21e800000a812UL, 0xff2c22c300002d56UL, 0xff2a1d020000d1eaUL, 0xff24242800002793UL,
  0xff211e2300005dccUL, 0xff07239600005840UL, 0xff3026060000fbe6UL, 0xfef22b0f0000e458UL,
  0xff0e197000008353UL, 0xfee6233900001796UL, 0xfef91eaa0000038eUL, 0xfef02b6d000078e5UL,
  0xff0631720000ae04UL, 0xff2919db00006f32UL, 0xff402a32000098afUL, 0xfefb2a0200001626UL,
  0xff1723c00000627aUL, 0xff1721340000fc50UL, 0xfef2227a00005d08UL, 0xfef21f8500008a75UL,
  0xff17219d0000f8c6UL, 0xfef9211d000097ccUL, 0xfef518b90000bc02UL, 0xfeeb2ee200007dc6UL,
  0xff0b1d7500009469UL, 0xfeff178b00002ec3UL, 0xfef928b100004815UL, 0xff49172500009f31UL,
  0xff0529760000089cUL, 0xff111cac000079d7UL, 0xfee71da400006bffUL, 0xff1018810000317cUL,
  0xfee71de000005f69UL, 0xff051bc50000d7efUL, 0xff0b154f00008f46UL, 0xff3119910000830aUL,
  0xff0c1d190000da22UL, 0xff162817000030c0UL, 0xff21211400006265UL, 0xfee41d8f00007f88UL,
  0xff26171000004c12UL, 0xfeca1af60000c2d0UL, 0xfefc1eeb000020b1UL, 0xff00184f00006a19UL,
  0xff2d1a56000048ebUL, 0xff1d1621000063c0UL, 0xff2223dc0000d745UL, 0xff172340000082ceUL,
  0xff02287900001f8bUL, 0xfeef1c8b00001334UL, 0xfef3261900009a34UL, 0xff0e23450000cbdbUL,
  0xff1b333f0000da70UL, 0xfeea1c60000022ceUL, 0xff0c16fd0000e0c6UL, 0xff1a1f800000084eUL,
  0xfee237590000b97aUL, 0xff05233600003e9cUL, 0xfeb61fd400003a00UL, 0xfef81ed20000d2f4UL,
  0xff201eb90000feb1UL, 0xfec81e910000e208UL, 0xff0a1f7b0000f84eUL, 0xff52221f00006c1bUL,
  0xff242ba10000ba15UL, 0xfef01e4c000065e1UL, 0xff3023f00000810aUL, 0xff4a1c4a0000fc67UL,
  0xff122dec00002e4fUL, 0xff0b284c0000350dUL, 0xfede1d8a0000cbaaUL, 0xff0d254a00006886UL,
  0xff0915ae0000a0b6UL, 0xfee41bce0000818cUL, 0xff0828250000d009UL, 0xff0c1efa0000a766UL,
  0xff0e25d50000882eUL, 0xff231e9900004769UL, 0xfed418430000c874UL, 0xff1526c700004915UL,
  0xff0b1a6c00009ad1UL, 0xfefd20f9000079feUL, 0xff1821230000c102UL, 0xff19206f000059c6UL,
  0xff2e1e96000017e8UL, 0xff331b1300004b97UL, 0xff021b4100001f67UL, 0xfef8207400005e5fUL,
  0xfef0220c0000e89cUL, 0xfeda1d3900008c30UL, 0xff32194600006fecUL, 0xff3c247500008552UL,
  0xfeed1d5400009fc0UL, 0xfeca208c0000be06UL, 0xff0816b70000d6b6UL, 0xfeef18d500004ed6UL,
  0xfef4243f000096a5UL, 0xfeef21eb00002473UL, 0xff341beb0000dc49UL, 0xff0b23260000e403UL,
  0xfef7137d0000e2a8UL, 0xfee719eb00007802UL, 0xff241750000004a7UL, 0xff151b290000e542UL,
  0xff0624ae0000c537UL, 0xfee0198100001009UL, 0xff4423dc00002da0UL, 0xfef8180a0000fd66UL,
  0xff312f1a00009971UL, 0xff1d3074000081a8UL, 0xff311caf0000cf91UL, 0xff261dd80000fe3aUL,
  0xff213c330000a79eUL, 0xff2b1e260000fb0eUL, 0xfee91e4400001e6eUL, 0xff021f2a0000a1faUL,
  0xff281f8c00006b62UL, 0xff171a18000029f1UL, 0xff0d20b60000b49bUL, 0xff1a203c00008b2eUL,
  0xff16199900004ef1UL, 0xff021b6b0000e628UL, 0xff2e26f30000be8bUL, 0xfed81ccb0000122eUL,
  0xfef81e84000088b0UL, 0xfed7216f00007202UL, 0xff2024df00000cbaUL, 0xff28157d000083afUL,
  0xff001b2600008579UL, 0xff101d7900007879UL, 0xff1b21410000f5d1UL, 0xff3a1ac800009aa5UL,
  0xff111f500000840cUL, 0xff2923cd0000c420UL, 0xff182b1600004e9aUL, 0xfef91f3100007a7dUL,
  0xff0e2531000092a5UL, 0xfefc1b2000005afaUL, 0xff161e8a00006c94UL, 0xff301f120000f851UL,
  0xff2c1ab60000df9bUL, 0xff411ed6000098f4UL, 0xfef22aae000039b7UL, 0xfefe16270000a9a5UL,
  0xff02200c0000e9b2UL, 0xff022d090000fd17UL, 0xff181948000043d2UL, 0xff0723640000e151UL,
  0xfed915e80000d622UL, 0xfef8290d000031ddUL, 0xff351d63000040c0UL, 0xfec31d7d00000607UL,
  0xfecd195b000088d5UL, 0xff061a4300006594UL, 0xff06207c0000da8cUL, 0xfede2e6f000074a4UL,
  0xff131a8a0000a2d3UL, 0xff27304d00008e39UL, 0xfeec1e370000ede5UL, 0xfed81d110000d212UL,
  0xff02222b000005a0UL, 0xfefe275e00001a1eUL, 0xfefa27870000eee5UL, 0xfedf17e30000a276UL,
  0xfed61f5c00001a39UL, 0xff1320a200007543UL, 0xff0321c400006a81UL, 0xfeff1a6f0000b172UL,
  0xff091b2c00003179UL, 0x0080226100005595UL, 0x0800000060000042UL, 0x60027c0015000000UL,
  0x6007004300070000UL, 0x0000002000004000UL, 0x00000000600c0043UL, 0x0080210110411041UL,
  0x0888030034007c00UL, 0x342ec00034020043UL, 0x340500c300001000UL, 0x0000000000000000UL,
  0x0000300000000010UL, 0x0010000000000024UL, 0x00000006340c0042UL, 0x340d004300000007UL,
  0x342ef03f00000010UL, 0x0000000034110043UL, 0x0080202100000000UL, 0x0888018418007c00UL,
  0x3421002018020043UL, 0x180500c300002ab0UL, 0x0000000000000000UL, 0x0000000000000000UL,
  0x0010000000000024UL, 0x00000006180c0042UL, 0x180d004300000007UL, 0x3421806f00000001UL,
  0x0000000018110043UL, 0x0080206100000000UL, 0x0008000820007c00UL, 0x342e000020020123UL,
  0x01000010000c0008UL, 0x0000001000000800UL, 0x0000600000000010UL, 0x0010000000000024UL,
  0x00000006200c0042UL, 0x200d004300000007UL, 0x342e603f00000010UL, 0x0000000020110043UL,
  0x10057c0000000000UL, 0x1015004300000027UL, 0x0000000300000011UL, 0x0000001b101e7c00UL,
  0x0000002510207c00UL, 0x0000000110007c00UL, 0x48007c0020002001UL, 0x5c00200110d00035UL,
  0x1800200160002001UL, 0x20007fe434002001UL, 0x0000000000000064UL, 0x0000000210007c00UL,
  0x0000006410000424UL, 0x10007c0000000000UL, 0x10007bc440000000UL, 0x0000000000000064UL,
  0x0000000010057c00UL, 0x0000000010150043UL, 0x101e7c0000000000UL, 0x10207c0000000000UL,
  0x20007c0000000000UL, 0x2000042400000002UL, 0x0000000000000064UL, 0x4000000020007c00UL,
  0x0000006420007bc4UL, 0x0080006100000000UL, 0x0000000248007c00UL, 0x0000006448000424UL,
  0x48007c0000000000UL, 0x48007bc440000000UL, 0x0000000000000064UL, 0x5c007c00008001a1UL,
  0x5c00042408000002UL, 0x0000000000000064UL, 0x480000005c007c00UL, 0x000000645c007bc4UL,
  0x0080024100000000UL, 0x0800000260007c00UL, 0x0000006460000424UL, 0x60007c0000000000UL,
  0x60007bc448000000UL, 0x0000000000000064UL, 0x18007c0000800261UL, 0x1800042400000002UL,
  0x0000000000000064UL, 0x4000000018007c00UL, 0x0000006418007bc4UL, 0x0080002100000000UL,
  0x0000000234007c00UL, 0x0000006434000424UL, 0x34007c0000000000UL, 0x34007bc440000000UL,
  0x0000000000000064UL, 0x0000019d00800101UL, 0x3c007c0000802141UL, 0x3c0200e300100034UL,
  0x0000115501010303UL, 0x000c000810634303UL, 0x000b000000070000UL, 0x3c0a7c0000000001UL,
  0x3c0d7c0000000000UL, 0x0080228100000000UL, 0x0800000064000042UL, 0x64020123156000fcUL,
  0x0000000000098000UL, 0x0000005f00000000UL, 0x0000000000005fffUL, 0x0404020000000000UL,
  0x640c004300000001UL, 0x2042204200000000UL, 0x00000001640b7c00UL, 0xfbed5b2a65004003UL,
  0xfb9661460000bfedUL, 0xfc0d46b100009b4cUL, 0xfbb63c770000ab32UL, 0xfbf956eb000092f4UL,
  0xfc1443e600000a2eUL, 0xfc9e3f950000fc8fUL, 0xfc8a350100004d33UL, 0xfc106e710000f357UL,
  0xfbe73b4a0000eed7UL, 0xfbea45d60000989cUL, 0xfb734f460000f5d8UL, 0xfc7522c6000006b4UL,
  0xfbf64e3200001982UL, 0xfc0e523400005711UL, 0xfc4f3c370000ee72UL, 0xfbef442d0000807eUL,
  0xfb8148a10000fcf4UL, 0xfbdc724b00001d1eUL, 0xfb9979bb00002bdbUL, 0xfbf254d800000d7bUL,
  0xfbf7527c00009e6eUL, 0xfbf45cef000004b7UL, 0xfbe539f400009c2cUL, 0xfb822d02000066a4UL,
  0xfc213d020000d1baUL, 0xfc11763f00002772UL, 0xfc7c36c000008d47UL, 0xfc6732b000007173UL,
  0xfc8943150000d997UL, 0xfc722793000024cfUL, 0xfc3e424f00000c5cUL, 0xfbf832dc00004324UL,
  0xfc5c3eeb0000f28cUL, 0xfc3244de0000b08dUL, 0xfc0162580000a40cUL, 0xfb9e55370000ae42UL,
  0xfc4b264300008221UL, 0xfbc042680000cc1eUL, 0xfc9745cb00001f52UL, 0xfc11423f0000c959UL,
  0xfc235f23000077acUL, 0xfbf3453300008995UL, 0xfbee4c7d00007f76UL, 0xfb9a4d1900001c38UL,
  0xfc0560bc00006f5cUL, 0xfc1d47bf00002604UL, 0xfc3f3dd30000e1c1UL, 0xfbf45c1e0000d920UL,
  0xfc6b24440000ef60UL, 0xfbed4c25000046bbUL, 0xfbef38ce0000728dUL, 0xfc6d22f70000f7efUL,
  0xfbb3506800004cb6UL, 0xfb98482700007b7fUL, 0xfc2a35ba000062aaUL, 0xfbff59e200007280UL,
  0xfc083f0600002a88UL, 0xfbf4402e0000ec96UL, 0xfba356040000afd3UL, 0xfb9c5f5b0000f00dUL,
  0xfbe9358c000073f5UL, 0xfba251e500001874UL, 0xfc403e6b00007812UL, 0xfbfd524c0000a433UL,
  0xfbe1425800001b58UL, 0xfc3240fc00007381UL, 0xfc54559300004aeaUL, 0xfbd23f0f0000fd27UL,
  0xfc473a38000046dbUL, 0xfc7624ac00005359UL, 0xfbce316700004056UL, 0xfb9a57bb0000b1b5UL,
  0xfbed43a70000b10bUL, 0xfbf166c5000009eeUL, 0xfc7a2f170000ffdcUL, 0xfbb65b2c0000924bUL,
  0xfc833c060000528aUL, 0xfc40415500000182UL, 0xfb8c48e700004747UL, 0xfc0259a00000071eUL,
  0xfc8324320000468fUL, 0xfc136dbe00003d0aUL, 0xfc6b2fb300002ef8UL, 0xfc034ce40000e193UL,
  0xfbf6555400005763UL, 0xfbb2561900005581UL, 0xfc3a34b500009ad9UL, 0xfc1446c4000099c6UL,
  0xfbfd74560000a0e3UL, 0xfbf13c590000abc5UL, 0xfbef3e280000f1d9UL, 0xfbfd3dfd00005e58UL,
  0xfc045f250000d21eUL, 0xfbdf4e000000ecabUL, 0xfc672b9a0000e4d6UL, 0xfbc5441c000071d4UL,
  0xfbd5493b0000ffc3UL, 0xfbf9446a0000ce4cUL, 0xfbb5369c0000d1e8UL, 0xfbda516d000018cdUL,
  0xfcae566100001c55UL, 0xfbde36d30000710aUL, 0xfc632c300000974cUL, 0xfbea5a6100001829UL,
  0xfc833296000049ceUL, 0xfb914a8f00008673UL, 0xfc294c2d0000df97UL, 0xfc7725310000eb71UL,
  0xfc66448800007cebUL, 0xfc6c18610000f638UL, 0xfbb85f9c0000ba6cUL, 0xfbf34d5c0000c2e0UL,
  0xfbfa48ff00004ef4UL, 0xfc81435100007095UL, 0xfbb549e600004731UL, 0xfbf3557a0000aae0UL,
  0xfc742ce600008fffUL, 0xfc4643bc0000ce0dUL, 0xfc1857f700006179UL, 0xfbf4638000006587UL,
  0xfbf453450000ba7cUL, 0xfc9a4a9400000bccUL, 0xfbdb43980000a847UL, 0xfc4b3e9000006e1aUL,
  0xfbe034a700004515UL, 0xfc373b8e0000b63cUL, 0xfba7484e0000dcc3UL, 0xfbbb44b200009881UL,
  0xfbfd40da0000bddaUL, 0xfc14455a0000d8c0UL, 0xfc4757350000c1f7UL, 0xfc3348a8000006d9UL,
  0xfc094c7a00001657UL, 0xfb8242f80000abdeUL, 0xfc894bf00000fcf6UL, 0xfb9e539a0000448bUL,
  0xfbf071d9000099e5UL, 0xfc2d5305000099f6UL, 0xfbd6636600000915UL, 0xfb9d549900001d38UL,
  0xfb9d552e0000d02fUL, 0xfbe93e7300008dc5UL, 0xfbf149fc0000a606UL, 0xfbd62d8800009603UL,
  0xfbc5780c00004b17UL, 0xfbe02e7400008f4aUL, 0xfbca3e4c00004435UL, 0xfbe44fab0000dbafUL,
  0xfbd730dc0000d8d5UL, 0xfc5a58ad00001bfaUL, 0xfc7c41b50000e22aUL, 0xfc0c354b00003990UL,
  0xfc952b270000dae3UL, 0xfc8252a80000a2ccUL, 0xfbc940eb0000eda5UL, 0xfbe13fef0000ab8dUL,
  0xfbfd552a0000b840UL, 0xfc1440d300006156UL, 0xfbf257520000f45dUL, 0xfc1649bf00002f8cUL,
  0xfc703d6d0000d467UL, 0xfc6e430000000560UL, 0xfb8a57700000bdf4UL, 0xfc65464000003461UL,
  0xfba94a8f0000cecfUL, 0xfbeb61730000b85aUL, 0xfc763e6700008a12UL, 0xfc312dc000009655UL,
  0xfc0a53a20000fef5UL, 0xfbc54ac20000014dUL, 0xfbb363660000d02cUL, 0xfbff31f600007646UL,
  0xfbf3570000008956UL, 0xfba4488300004187UL, 0xfc1c551e0000670dUL, 0xfc7c36d600008d86UL,
  0xfbf8586500003bcdUL, 0xfbf841590000d5ccUL, 0xfbcd4bb6000098deUL, 0xfb9b475b00002adcUL,
  0xfbf665450000466eUL, 0xfbfe5234000074d3UL, 0xfc1e3b730000a2a2UL, 0xfbb8450900003f6eUL,
  0xfc254a7000002243UL, 0xfbab4af200002e80UL, 0xfc40566e0000c23dUL, 0xfbfa39320000461dUL,
  0xfbfc4ba60000714bUL, 0xfbf3554400003b7eUL, 0xfc1e415e0000d7d9UL, 0xfba247bb0000193dUL,
  0xfbd25cf900008481UL, 0xfba0549b000031adUL, 0xfb9240ad000052feUL, 0xfbbe46940000e4bdUL,
  0xfbf647990000e6aaUL, 0xfc96569b0000987dUL, 0xfbf235f300001513UL, 0xfbba40690000e84cUL,
  0xfc243e3a00002ddaUL, 0xfbcb42c90000762cUL, 0xfc0345b00000db2dUL, 0xfbf34bd70000accbUL,
  0xfbe03e5300003953UL, 0xfbef6ae60000bf3eUL, 0xfbe75fdb0000df1bUL, 0xfbf26e070000497bUL,
  0xfbfb434f0000314fUL, 0xfbee54120000339bUL, 0xfbf95f690000594dUL, 0xfbfb49b000004a98UL,
  0xfbf5342d0000d382UL, 0xfc4f3bb100008df6UL, 0xfbf949450000645eUL, 0xfbe550c900004f55UL,
  0xfc4c4e4200004b64UL, 0xfc2234fc0000315dUL, 0xfc813fdc00009df5UL, 0xfc1748c50000cdeaUL,
  0xfc7e34670000188dUL, 0xfc2d4e2800006c7cUL, 0xfb9547920000fc3dUL, 0xfbd5486500005874UL,
  0xfbe947730000dd49UL, 0xfc0d40900000b505UL, 0xfc793b5400002541UL, 0xfc8848380000f47dUL,
  0xfbf03a750000f656UL, 0xfbfc46310000d07bUL, 0xfbaf45ae0000be77UL, 0xfc0e46e60000bccdUL,
  0xfc264a27000066b6UL, 0xfc752f87000029b9UL, 0xfbc36baa0000322fUL, 0xfbd12a670000f71cUL,
  0xfc1542db00004a8fUL, 0xfbf8469500006a11UL, 0xfbe6308800005089UL, 0xfbfd312a000037caUL,
  0xfb8e31480000abe6UL, 0xfc222f1e00007ea9UL, 0xfc00587800009f96UL, 0xfc683f000000c70dUL,
  0xfc263c02000057ecUL, 0xfbe74fb10000cb24UL, 0xfbc248660000fdcbUL, 0xfc721f95000046f1UL,
  0xfc7b34fe00007c1fUL, 0xfc274c050000c8c9UL, 0xfbc442fd00001f93UL, 0xfc02564700003555UL,
  0xfb9c4ddc00003b94UL, 0xfc6c224000003e9dUL, 0xfbea4cb200005d77UL, 0x008022a100004799UL,
  0x0800000068000042UL, 0x68027c0015000000UL, 0x6807004300070000UL, 0x0000002000004000UL,
  0x00000000680c0043UL, 0x0080210110411041UL, 0x0008000034007c00UL, 0x342e000034020123UL,
  0x01000001000c0008UL, 0x0000000000000800UL, 0x0000000100000001UL, 0x0010000000000024UL,
  0x00000006340c0042UL, 0x340d004300000007UL, 0x342e603f00000100UL, 0x0000000034110043UL,
  0x0080206100000000UL, 0x0008018420007c00UL, 0x3421f35020020043UL, 0x200500c300000900UL,
  0x0000000000000000UL, 0x0000000000000000UL, 0x0010000000000024UL, 0x00000006200c0042UL,
  0x200d004300000007UL, 0x3421fc8f00000001UL, 0x0000000020110043UL, 0x0080208100000000UL,
  0x0008000824007c00UL, 0x342e600024020123UL, 0x01000001000c0008UL, 0x0000000100000800UL,
  0x0000600000000100UL, 0x0010000000000024UL, 0x00000006240c0042UL, 0x240d004300000007UL,
  0x342ec03f00000100UL, 0x0000000024110043UL, 0x10067c0000000000UL, 0x100c00430000002bUL,
  0x0000000700000011UL, 0x0000001510227c00UL, 0x0000002910247c00UL, 0x0000000110007c00UL,
  0x3c007c0024002001UL, 0x6400200100100035UL, 0x2000200168002001UL, 0x24007fe434002001UL,
  0x0000000000000064UL, 0x0000000210007c00UL, 0x0000006410000424UL, 0x10007c0000000000UL,
  0x10007bc440000000UL, 0x0000000000000064UL, 0x0000000010067c00UL, 0x00000000100c0043UL,
  0x10227c0000000000UL, 0x10247c0000000000UL, 0x24007c0000000000UL, 0x2400042400000002UL,
  0x0000000000000064UL, 0x4000000024007c00UL, 0x0000006424007bc4UL, 0x0080008100000000UL,
  0x000000023c007c00UL, 0x000000643c000424UL, 0x3c007c0000000000UL, 0x3c007bc440000000UL,
  0x0000000000000064UL, 0x64007c0000800141UL, 0x6400042408000002UL, 0x0000000000000064UL,
  0x4800000064007c00UL, 0x0000006464007bc4UL, 0x0080028100000000UL, 0x0800000268007c00UL,
  0x0000006468000424UL, 0x68007c0000000000UL, 0x68007bc448000000UL, 0x0000000000000064UL,
  0x20007c00008002a1UL, 0x2000042400000002UL, 0x0000000000000064UL, 0x4000000020007c00UL,
  0x0000006420007bc4UL, 0x0080006100000000UL, 0x0000000234007c00UL, 0x0000006434000424UL,
  0x34007c0000000000UL, 0x34007bc440000000UL, 0x0000000000000064UL, 0x000001bd00800101UL,
  0x40007c0000802161UL, 0x400200e310d00034UL, 0x0000110010800101UL, 0x000c040010774005UL,
  0x000b000003ff0000UL, 0x400a7c00000f0020UL, 0x400d7c0000000000UL, 0x0080218100000000UL,
  0x10d0002044007c00UL, 0x10800101440200e3UL, 0x1063450000001100UL, 0x03ff0000000c0400UL,
  0x001f1020000b0000UL, 0x00000000440a7c00UL, 0x00000000440d7c00UL, 0x5c00004200802241UL,
  0x156000fc08000000UL, 0x000800005c020123UL, 0x0000000f00000000UL, 0x00005fff000005ffUL,
  0x0000000000000000UL, 0x00000001040403f1UL, 0x000000005c0c0043UL, 0x5c0b7c0020422042UL,
  0x5d00400300000001UL, 0x00005f92ff8819d1UL, 0x0000ed7bff761ae9UL, 0x0000278dff7d18b8UL,
  0x0000baf5ff7619dfUL, 0x0000e720ff832592UL, 0x0000c5a4ff8b212fUL, 0x00000738ff8b2047UL,
  0x0000cc76ff751c65UL, 0x000001f5ffa91ce1UL, 0x0000dc4aff8d18c2UL, 0x0000858eff752287UL,
  0x0000940bff971903UL, 0x00004259ff67224dUL, 0x00000facff9a19c6UL, 0x0000248aff731863UL,
  0x0000a411ff8e1edfUL, 0x0000404dff8719c8UL, 0x00006404ff6825a4UL, 0x0000bab9ff8a1bb1UL,
  0x00003442ff87221dUL, 0x000030bcff821b5aUL, 0x00001defff6c1d97UL, 0x0000af97ff68204eUL,
  0x0000b9dfff65222bUL, 0x0000cc4bff8a1bcaUL, 0x00006d74ff921deeUL, 0x00009c15ff73206bUL,
  0x0000311effa515c4UL, 0x0000eb03ff871c70UL, 0x0000ad8cff58220bUL, 0x000029e8ff6a1c25UL,
  0x0000dd55ff8f148aUL, 0x000036a9ff751d45UL, 0x000083efff6f197bUL, 0x0000854cff811d50UL,
  0x0000f1b6ff73264fUL, 0x0000b48eff81275aUL, 0x00000fd6ff821dd8UL, 0x00003eeeff7e2109UL,
  0x00005cc1ff7c2f14UL, 0x0000cd87ff6c1ef5UL, 0x00002d93ff822ae4UL, 0x00000121ff5a185aUL,
  0x000028b1ff8b1e2bUL, 0x000010c5ff991d5dUL, 0x00008425ff811d93UL, 0x0000b7b3ff982753UL,
  0x00005806ff871abdUL, 0x0000b33eff721faaUL, 0x000000d4ff842fbcUL, 0x0000241bff84180bUL,
  0x00007908ff931841UL, 0x00008216ff8f22ffUL, 0x00004d15ff882230UL, 0x0000eb51ff6b1ce8UL,
  0x0000eaddff821c1eUL, 0x000073c5ff9829b0UL, 0x0000293aff77283aUL, 0x0000ea17ff861a9eUL,
  0x000043cdff8b21a8UL, 0x00000d7dff6f266aUL, 0x0000f754ff881e4dUL, 0x000024c2ff893093UL,
  0x000038c5ff8f2908UL, 0x0000868aff7324abUL, 0x000030e0ff9328e3UL, 0x0000a0e3ff7d2618UL,
  0x0000ddb7ff911d1dUL, 0x0000e2f8ff7c1c98UL, 0x00007c4eff951ffcUL, 0x00004a3dff7116f7UL,
  0x00005044ff8723f1UL, 0x00006f72ff8d1d14UL, 0x0000b654ff6f236cUL, 0x00005bf5ff841eebUL,
  0x000092b1ff762974UL, 0x00007e79ff892123UL, 0x0000bdb5ff7e1d77UL, 0x000094aeff912202UL,
  0x0000a475ff8320c1UL, 0x00003558ff821ba9UL, 0x0000dc53ff7120b4UL, 0x0000fc64ff7c2dcfUL,
  0x0000c8a0ff7e2396UL, 0x00002166ff981f5eUL, 0x00009c88ff841d8fUL, 0x00009c22ff82232aUL,
  0x00002f00ff6918c9UL, 0x000087bdff771befUL, 0x0000ceeeff642c62UL, 0x00009026ff951e46UL,
  0x0000a94aff8f22e2UL, 0x000075b7ff6b1e65UL, 0x00002f7dff86179aUL, 0x0000699bff7619fbUL,
  0x0000b7caff95288eUL, 0x00006e8cff822373UL, 0x00005197ff931b5dUL, 0x00001d59ff8e15e0UL,
  0x0000492dff9f1ea4UL, 0x0000cd2eff5a21deUL, 0x0000c9c0ff761a55UL, 0x0000810fff951c6eUL,
  0x00009930ff7f17d7UL, 0x0000a6caff8b1a09UL, 0x0000c88fff93187dUL, 0x00008533ff4e2501UL,
  0x0000b7aaff862189UL, 0x0000f366ff8521f9UL, 0x00004e8cff5b1b16UL, 0x0000260cff8d1ed6UL,
  0x0000e9efff8225b6UL, 0x0000226aff851c70UL, 0x00001036ff801b4fUL, 0x0000cac4ff901cd7UL,
  0x0000fbfdff7419d8UL, 0x0000fdb1ff7a2077UL, 0x0000cb6bff8718ccUL, 0x0000f528ff721cd0UL,
  0x00007fdcff711fc7UL, 0x0000e64dff881da9UL, 0x0000ba18ff7c29a3UL, 0x00000b83ff8622baUL,
  0x0000944cff7c2283UL, 0x0000abb1ff8c1de8UL, 0x0000765bff7c2663UL, 0x000062efff84179cUL,
  0x000062b6ff8429ecUL, 0x00006828ff6921e9UL, 0x0000cbf1ff7d201eUL, 0x00009e8eff991744UL,
  0x0000d39fff791c92UL, 0x00008797ff8021a3UL, 0x00008ff3ff861c98UL, 0x00007f9dff9a1cbbUL,
  0x00002364ff951f12UL, 0x00001882ff8e1b39UL, 0x00007838ff771db9UL, 0x0000700dff96184bUL,
  0x00004932ff7c2831UL, 0x00006bccff6817f6UL, 0x0000ab5cff901a04UL, 0x0000ed43ff7c2047UL,
  0x000010a4ff8720d4UL, 0x0000feedff8e1cb2UL, 0x00005824ff712c88UL, 0x0000ba9bff791e8bUL,
  0x0000bd2dff861cb5UL, 0x0000d5a0ff792109UL, 0x000024f1ff7f1b11UL, 0x00003064ff9827b4UL,
  0x0000061eff8323f4UL, 0x00008475ff842c29UL, 0x0000dd18ff691e49UL, 0x00002e52ffa71b1dUL,
  0x00004259ff5d2bfbUL, 0x00004b35ff8e1dadUL, 0x00002f0aff861e92UL, 0x0000163eff942379UL,
  0x0000ca40ff8338ddUL, 0x00004dbbff88271eUL, 0x0000669cff7c1d74UL, 0x0000f507ff6d1f5eUL,
  0x00002588ff8918ebUL, 0x000074aaff7c2125UL, 0x000047fcff741e1bUL, 0x0000e46dff6c1e42UL,
  0x00002f4dff721f86UL, 0x00006d0bff701d3cUL, 0x0000215bff83228fUL, 0x0000be40ff6c20c5UL,
  0x00008ad1ff93240cUL, 0x000095a9ff991da2UL, 0x0000e846ff6f1753UL, 0x00008b14ff8e1be3UL,
  0x0000622fff832264UL, 0x00000b55ff8c247aUL, 0x00002109ff901c1eUL, 0x00006042ff6e1d57UL,
  0x0000156aff6024caUL, 0x00005b45ff7e511bUL, 0x00005817ff921e21UL, 0x0000027eff821dc6UL,
  0x0000376dff751886UL, 0x00002f0eff772599UL, 0x0000b000ff89284eUL, 0x00000a45ff902035UL,
  0x00004372ff8921abUL, 0x0000b423ff9321e7UL, 0x0000ec27ff6921e3UL, 0x00007884ff87207cUL,
  0x000069f0ff662285UL, 0x0000f9c4ff872a91UL, 0x0000dc73ff7729dbUL, 0x00006987ff752647UL,
  0x00007120ff67196cUL, 0x000051bfff9e2b6eUL, 0x00000dfcff811636UL, 0x00003c1eff682036UL,
  0x0000e003ff8020bcUL, 0x0000a4b7ff871f37UL, 0x00001804ff7f149fUL, 0x0000e5a5ff861a84UL,
  0x0000ad96ff821a1eUL, 0x00001dbfff701c81UL, 0x000001dfff8120bfUL, 0x00007786ff992b90UL,
  0x00001cc9ff7a19d9UL, 0x00002d3fff861abfUL, 0x00003eb4ff8223fdUL, 0x0000e4dbff871f5dUL,
  0x000051d7ff91261fUL, 0x00003c3dff75215dUL, 0x00002d9aff8718b0UL, 0x00007f6bff6f23a4UL,
  0x0000feb7ff982423UL, 0x0000ec6cff7d1a21UL, 0x00001861ff801a02UL, 0x00008f31ff9c214eUL,
  0x00007c36ff851650UL, 0x00009d88ff741a8cUL, 0x0000613aff8a1e3dUL, 0x0000e50fff661c19UL,
  0x0000ec8cff911d3eUL, 0x0000dc1fff8f1de2UL, 0x00004fccff922d1eUL, 0x0000cd97ff8c1f62UL,
  0x00005497ff7a1d9fUL, 0x00005a40ff5b2a4cUL, 0x0000b991ff6c1cf8UL, 0x0000a611ff82336bUL,
  0x00004bedff8e29ebUL, 0x00009559ff8c1bcfUL, 0x00005b83ff7b1e73UL, 0x00000eeaff7d28fcUL,
  0x00001aa0ff841b61UL, 0x0000aa53ff842072UL, 0x0000e35fff98219cUL, 0x00007f3fff6f1dc2UL,
  0x000027d2ff9c2132UL, 0x0000ef8bffa52157UL, 0x00005313ff901824UL, 0x00007b2fff752746UL,
  0x00009a3cff871a20UL, 0x00009e1fff6a1c27UL, 0x0000c845ff9b1ae7UL, 0x0000faecff86245aUL,
  0x00007c11ff4a1b34UL, 0x0000c47bff922501UL, 0x0000bdd1ff7b1bfaUL, 0x00007802ff7324a3UL,
  0x0000573aff911c35UL, 0x00003bbcffa31efeUL, 0x000030bbff741deaUL, 0x00000813ff7c1ed1UL,
  0x0000bec2ff6b1dc1UL, 0x2c007c00008020c1UL, 0x2c02012308880200UL, 0x000c0008342e6000UL,
  0x000008000100002bUL, 0x0000001000000000UL, 0x0000002400000100UL, 0x2c0c004200100000UL,
  0x0000000700000006UL, 0x000000102c0d0043UL, 0x2c110043342ec03fUL, 0x0000000000000000UL,
  0x1c007c0000802041UL, 0x1c02004308880184UL, 0x0000556034200000UL, 0x000000001c0500c3UL,
  0x0000000000000000UL, 0x0000002400000000UL, 0x1c0c004200100000UL, 0x0000000700000006UL,
  0x000000011c0d0043UL, 0x1c1100433421005fUL, 0x0000000000000000UL, 0x20007c0000802061UL,
  0x2002012308880200UL, 0x000c0008342e6080UL, 0x000008000100002bUL, 0x0000001000000000UL,
  0x0000002400000100UL, 0x200c004200100000UL, 0x0000000700000006UL, 0x00000010200d0043UL,
  0x20110043342ec03fUL, 0x0000000000000000UL, 0x28007c00008020a1UL, 0x2802012300080008UL,
  0x000c0008342e0000UL, 0x0000080001000010UL, 0x0000001000000010UL, 0x0000002400006000UL,
  0x280c004200100000UL, 0x0000000700000006UL, 0x00000010280d0043UL, 0x28110043342e603fUL,
  0x0000000000000000UL, 0x0000002510077c00UL, 0x0000000d100f0043UL, 0x1012006300000005UL,
  0x0000000500000007UL, 0x101e7c0000000017UL, 0x10007c0000000019UL, 0x2800200100000001UL,
  0x10d0003540007c00UL, 0x10d0002144007c00UL, 0x1c0020015c002001UL, 0x2c00200120002001UL,
  0x0000006428007fe4UL, 0x10007c0000000000UL, 0x1000042400000002UL, 0x0000000000000064UL,
  0x4000000010007c00UL, 0x0000006410007bc4UL, 0x10077c0000000000UL, 0x100f004300000000UL,
  0x0000000000000000UL, 0x0000000010120063UL, 0x0000000000000000UL, 0x00000000101e7c00UL,
  0x0000000228007c00UL, 0x0000006428000424UL, 0x28007c0000000000UL, 0x28007bc440000000UL,
  0x0000000000000064UL, 0x40007c00008000a1UL, 0x4000042400000002UL, 0x0000000000000064UL,
  0x4000000040007c00UL, 0x0000006440007bc4UL, 0x0080016100000000UL, 0x0000000244007c00UL,
  0x0000006444000424UL, 0x44007c0000000000UL, 0x44007bc440000000UL, 0x0000000000000064UL,
  0x5c007c0000800181UL, 0x5c00042408000002UL, 0x0000000000000064UL, 0x480000005c007c00UL,
  0x000000645c007bc4UL, 0x0080024100000000UL, 0x000000021c007c00UL, 0x000000641c000424UL,
  0x1c007c0000000000UL, 0x1c007bc440000000UL, 0x0000000000000064UL, 0x20007c0000800041UL,
  0x2000042400000002UL, 0x0000000000000064UL, 0x4000000020007c00UL, 0x0000006420007bc4UL,
  0x0080006100000000UL, 0x000000022c007c00UL, 0x000000642c000424UL, 0x2c007c0000000000UL,
  0x2c007bc440000000UL, 0x0000000000000064UL, 0x000001dd008000c1UL, 0x6c007c00008022c1UL,
  0x6c0200e30041cde8UL, 0x000c004020000440UL, 0x00005555000d0009UL, 0x000b0000003f0000UL,
  0x0080226100060001UL, 0x0800000060000042UL, 0x60027c0015000060UL, 0x6007004300060008UL,
  0x0000001af7c745f0UL, 0x00000000600c0043UL, 0x0080228110412042UL, 0x0800000064000042UL,
  0x64027c0015000000UL, 0x6407004300070000UL, 0x0000002000004000UL, 0x00000000640c0043UL,
  0x0080204110411041UL, 0x000800001c007c00UL, 0x342e00001c020123UL, 0x01000008000c0008UL,
  0x0000000800000800UL, 0x0000600000000020UL, 0x0010000000000024UL, 0x000000061c0c0042UL,
  0x1c0d004300000007UL, 0x342e603f00000020UL, 0x000000001c110043UL, 0x008020a100000000UL,
  0x0008010828007c00UL, 0x342e600028020043UL, 0x280500c300000008UL, 0x0000000800000000UL,
  0x0000000000000000UL, 0x0010000000000024UL, 0x00000006280c0042UL, 0x280d004300000007UL,
  0x342e613f00000020UL, 0x0000000028110043UL, 0x10077c0000000000UL, 0x10207c0000000029UL,
  0x10227c000000002dUL, 0x10267c0000000027UL, 0x10007c0000000005UL, 0x2800200100000001UL,
  0x6400200160002001UL, 0x1c0020016c002001UL, 0x0000006428007fe4UL, 0x10007c0000000000UL,
  0x1000042400000002UL, 0x0000000000000064UL, 0x4000000010007c00UL, 0x0000006410007bc4UL,
  0x10077c0000000000UL, 0x10207c0000000000UL, 0x10227c0000000000UL, 0x10267c0000000000UL,
  0x28007c0000000000UL, 0x2800042400000002UL, 0x0000000000000064UL, 0x4000000028007c00UL,
  0x0000006428007bc4UL, 0x008000a100000000UL, 0x0800000260007c00UL, 0x0000006460000424UL,
  0x60007c0000000000UL, 0x60007bc448000000UL, 0x0000000000000064UL, 0x64007c0000800261UL,
  0x6400042408000002UL, 0x0000000000000064UL, 0x4800000064007c00UL, 0x0000006464007bc4UL,
  0x0080028100000000UL, 0x004200026c007c00UL, 0x000000646c000424UL, 0x6c007c0000000000UL,
  0x6c007bc440420000UL, 0x0000000000000064UL, 0x1c007c00008002c1UL, 0x1c00042400000002UL,
  0x0000000000000064UL, 0x400000001c007c00UL, 0x000000641c007bc4UL, 0x0080004100000000UL,
  0x008021a1000001fdUL, 0x10d0003448007c00UL, 0x0a800101480200e3UL, 0x1077400500001100UL,
  0xffff000000010080UL, 0x00090014ffff0000UL, 0x00000000480a7c00UL, 0x00000000480d7c00UL,
  0x3c007c0000802141UL, 0x3c0200e310d00020UL, 0x000011000a800101UL, 0x0001008010634500UL,
  0xffff0000ffff0000UL, 0x3c0a7c0000130a14UL, 0x3c0d7c0000000000UL, 0x008022a100000000UL,
  0x0800000068000042UL, 0x68020123156000fcUL, 0x00000000000a0000UL, 0x0000000900000009UL,
  0x0000000000000009UL, 0x07dc03f700000000UL, 0x680c004300000001UL, 0x2042204200000000UL,
  0x00000001680b7c00UL, 0x050f38de69000283UL, 0x051257fc0000f1c8UL, 0x0512432700004167UL,
  0x050e34e700005a49UL, 0x050a44500000c43aUL, 0x050f4c7b00002debUL, 0x05136d1600009e02UL,
  0x051038db0000feadUL, 0x05095a120000138bUL, 0x051142c80000c13fUL, 0x008020e100006f4bUL,
  0x0888020430007c00UL, 0x342e600030020123UL, 0x0100002b00010001UL, 0x0000000000000100UL,
  0x0000010000000001UL, 0x0010000000000024UL, 0x00000006300c0042UL, 0x300d004300000007UL,
  0x342e613f00000001UL, 0x0000000030110043UL, 0x0080204100000000UL, 0x088801841c007c00UL,
  0x3421e0401c020043UL, 0x1c0500c300000356UL, 0x0000000000000000UL, 0x0000000000000000UL,
  0x0010000000000024UL, 0x000000061c0c0042UL, 0x1c0d004300000007UL, 0x3421ea8700000001UL,
  0x000000001c110043UL, 0x008020a100000000UL, 0x0888020428007c00UL, 0x342e608028020123UL,
  0x0100002b00010001UL, 0x0000000000000100UL, 0x0000010000000001UL, 0x0010000000000024UL,
  0x00000006280c0042UL, 0x280d004300000007UL, 0x342e613f00000001UL, 0x0000000028110043UL,
  0x0080202100000000UL, 0x0008010c18007c00UL, 0x342e03f018020043UL, 0x180500c30000000aUL,
  0x0000000a00000000UL, 0x0000000000000000UL, 0x0010000000000024UL, 0x00000006180c0042UL,
  0x180d004300000007UL, 0x342e043f00000001UL, 0x0000000018110043UL, 0x10037c0000000000UL,
  0x100c00630000002bUL, 0x000000050000000bUL, 0x101500430000001bUL, 0x000000050000000fUL,
  0x0000001510247c00UL, 0x0000000110007c00UL, 0x3c007c0018002001UL, 0x48007c0010d00021UL,
  0x6800200110d00035UL, 0x280020011c002001UL, 0x18007fe430002001UL, 0x0000000000000064UL,
  0x0000000210007c00UL, 0x0000006410000424UL, 0x10007c0000000000UL, 0x10007bc440000000UL,
  0x0000000000000064UL, 0x0000000010037c00UL, 0x00000000100c0063UL, 0x0000000000000000UL,
  0x0000000010150043UL, 0x10247c0000000000UL, 0x18007c0000000000UL, 0x1800042400000002UL,
  0x0000000000000064UL, 0x4000000018007c00UL, 0x0000006418007bc4UL, 0x0080002100000000UL,
  0x000000023c007c00UL, 0x000000643c000424UL, 0x3c007c0000000000UL, 0x3c007bc440000000UL,
  0x0000000000000064UL, 0x48007c0000800141UL, 0x4800042400000002UL, 0x0000000000000064UL,
  0x4000000048007c00UL, 0x0000006448007bc4UL, 0x008001a100000000UL, 0x0800000268007c00UL,
  0x0000006468000424UL, 0x68007c0000000000UL, 0x68007bc448000000UL, 0x0000000000000064UL,
  0x1c007c00008002a1UL, 0x1c00042400000002UL, 0x0000000000000064UL, 0x400000001c007c00UL,
  0x000000641c007bc4UL, 0x0080004100000000UL, 0x0000000228007c00UL, 0x0000006428000424UL,
  0x28007c0000000000UL, 0x28007bc440000000UL, 0x0000000000000064UL, 0x30007c00008000a1UL,
  0x3000042400000002UL, 0x0000000000000064UL, 0x4000000030007c00UL, 0x0000006430007bc4UL,
  0x008000e100000000UL, 0x000000000000000cUL
};

#define _ec_blob_network_3_address _ec_blob_network_3

// this macro returns true if _ec_blob_network_1 blob is encrypted and must be decrypted on the fly, false otherwise
#define LL_ATON_EC_MustDecryptBlob_network__ec_blob_network_1 false

// this macro returns true if _ec_blob_network_3 blob is encrypted and must be decrypted on the fly, false otherwise
#define LL_ATON_EC_MustDecryptBlob_network__ec_blob_network_3 false

// this function MUST be called ONLY ONCE once for initializing the network
bool LL_ATON_EC_Network_Init_network(void)
{
  return true;
}

// this function should be called before each inference
bool LL_ATON_EC_Inference_Init_network(void)
{
  return true;
}

#ifdef __cplusplus
}
#endif
